<pad>	0
<unk>	0
<s>	0
</s>	0
<en>	0
<fr>	0
<0x00>	0
<0x01>	0
<0x02>	0
<0x03>	0
<0x04>	0
<0x05>	0
<0x06>	0
<0x07>	0
<0x08>	0
<0x09>	0
<0x0A>	0
<0x0B>	0
<0x0C>	0
<0x0D>	0
<0x0E>	0
<0x0F>	0
<0x10>	0
<0x11>	0
<0x12>	0
<0x13>	0
<0x14>	0
<0x15>	0
<0x16>	0
<0x17>	0
<0x18>	0
<0x19>	0
<0x1A>	0
<0x1B>	0
<0x1C>	0
<0x1D>	0
<0x1E>	0
<0x1F>	0
<0x20>	0
<0x21>	0
<0x22>	0
<0x23>	0
<0x24>	0
<0x25>	0
<0x26>	0
<0x27>	0
<0x28>	0
<0x29>	0
<0x2A>	0
<0x2B>	0
<0x2C>	0
<0x2D>	0
<0x2E>	0
<0x2F>	0
<0x30>	0
<0x31>	0
<0x32>	0
<0x33>	0
<0x34>	0
<0x35>	0
<0x36>	0
<0x37>	0
<0x38>	0
<0x39>	0
<0x3A>	0
<0x3B>	0
<0x3C>	0
<0x3D>	0
<0x3E>	0
<0x3F>	0
<0x40>	0
<0x41>	0
<0x42>	0
<0x43>	0
<0x44>	0
<0x45>	0
<0x46>	0
<0x47>	0
<0x48>	0
<0x49>	0
<0x4A>	0
<0x4B>	0
<0x4C>	0
<0x4D>	0
<0x4E>	0
<0x4F>	0
<0x50>	0
<0x51>	0
<0x52>	0
<0x53>	0
<0x54>	0
<0x55>	0
<0x56>	0
<0x57>	0
<0x58>	0
<0x59>	0
<0x5A>	0
<0x5B>	0
<0x5C>	0
<0x5D>	0
<0x5E>	0
<0x5F>	0
<0x60>	0
<0x61>	0
<0x62>	0
<0x63>	0
<0x64>	0
<0x65>	0
<0x66>	0
<0x67>	0
<0x68>	0
<0x69>	0
<0x6A>	0
<0x6B>	0
<0x6C>	0
<0x6D>	0
<0x6E>	0
<0x6F>	0
<0x70>	0
<0x71>	0
<0x72>	0
<0x73>	0
<0x74>	0
<0x75>	0
<0x76>	0
<0x77>	0
<0x78>	0
<0x79>	0
<0x7A>	0
<0x7B>	0
<0x7C>	0
<0x7D>	0
<0x7E>	0
<0x7F>	0
<0x80>	0
<0x81>	0
<0x82>	0
<0x83>	0
<0x84>	0
<0x85>	0
<0x86>	0
<0x87>	0
<0x88>	0
<0x89>	0
<0x8A>	0
<0x8B>	0
<0x8C>	0
<0x8D>	0
<0x8E>	0
<0x8F>	0
<0x90>	0
<0x91>	0
<0x92>	0
<0x93>	0
<0x94>	0
<0x95>	0
<0x96>	0
<0x97>	0
<0x98>	0
<0x99>	0
<0x9A>	0
<0x9B>	0
<0x9C>	0
<0x9D>	0
<0x9E>	0
<0x9F>	0
<0xA0>	0
<0xA1>	0
<0xA2>	0
<0xA3>	0
<0xA4>	0
<0xA5>	0
<0xA6>	0
<0xA7>	0
<0xA8>	0
<0xA9>	0
<0xAA>	0
<0xAB>	0
<0xAC>	0
<0xAD>	0
<0xAE>	0
<0xAF>	0
<0xB0>	0
<0xB1>	0
<0xB2>	0
<0xB3>	0
<0xB4>	0
<0xB5>	0
<0xB6>	0
<0xB7>	0
<0xB8>	0
<0xB9>	0
<0xBA>	0
<0xBB>	0
<0xBC>	0
<0xBD>	0
<0xBE>	0
<0xBF>	0
<0xC0>	0
<0xC1>	0
<0xC2>	0
<0xC3>	0
<0xC4>	0
<0xC5>	0
<0xC6>	0
<0xC7>	0
<0xC8>	0
<0xC9>	0
<0xCA>	0
<0xCB>	0
<0xCC>	0
<0xCD>	0
<0xCE>	0
<0xCF>	0
<0xD0>	0
<0xD1>	0
<0xD2>	0
<0xD3>	0
<0xD4>	0
<0xD5>	0
<0xD6>	0
<0xD7>	0
<0xD8>	0
<0xD9>	0
<0xDA>	0
<0xDB>	0
<0xDC>	0
<0xDD>	0
<0xDE>	0
<0xDF>	0
<0xE0>	0
<0xE1>	0
<0xE2>	0
<0xE3>	0
<0xE4>	0
<0xE5>	0
<0xE6>	0
<0xE7>	0
<0xE8>	0
<0xE9>	0
<0xEA>	0
<0xEB>	0
<0xEC>	0
<0xED>	0
<0xEE>	0
<0xEF>	0
<0xF0>	0
<0xF1>	0
<0xF2>	0
<0xF3>	0
<0xF4>	0
<0xF5>	0
<0xF6>	0
<0xF7>	0
<0xF8>	0
<0xF9>	0
<0xFA>	0
<0xFB>	0
<0xFC>	0
<0xFD>	0
<0xFE>	0
<0xFF>	0
▁t	-0
ou	-1
▁a	-2
▁s	-3
▁d	-4
▁i	-5
re	-6
▁m	-7
▁c	-8
on	-9
▁p	-10
he	-11
▁l	-12
es	-13
en	-14
er	-15
▁w	-16
in	-17
..	-18
is	-19
an	-20
▁b	-21
▁y	-22
▁n	-23
▁f	-24
▁v	-25
▁j	-26
▁the	-27
▁you	-28
it	-29
▁-	-30
qu	-31
at	-32
ll	-33
as	-34
▁g	-35
or	-36
ar	-37
▁h	-38
et	-39
▁qu	-40
▁de	-41
▁to	-42
▁th	-43
ing	-44
▁u	-45
om	-46
▁o	-47
est	-48
ve	-49
▁je	-50
ous	-51
ent	-52
▁re	-53
le	-54
ai	-55
▁an	-56
ais	-57
▁he	-58
us	-59
ot	-60
▁r	-61
eu	-62
▁un	-63
...	-64
▁on	-65
▁le	-66
▁pas	-67
our	-68
▁e	-69
te	-70
▁it	-71
oi	-72
▁me	-73
ow	-74
▁in	-75
▁la	-76
▁il	-77
▁tu	-78
me	-79
se	-80
▁que	-81
ut	-82
al	-83
▁wh	-84
▁we	-85
▁ne	-86
▁be	-87
▁of	-88
▁vous	-89
ait	-90
ce	-91
▁and	-92
ay	-93
out	-94
▁that	-95
ri	-96
▁en	-97
▁su	-98
▁k	-99
ant	-100
▁com	-101
ro	-102
lle	-103
▁et	-104
▁do	-105
ac	-106
ion	-107
ig	-108
▁à	-109
▁ch	-110
▁ha	-111
de	-112
ke	-113
ie	-114
ic	-115
ir	-116
▁go	-117
il	-118
▁ce	-119
ver	-120
▁is	-121
▁les	-122
▁se	-123
....	-124
am	-125
ien	-126
▁pour	-127
▁tr	-128
ld	-129
▁what	-130
▁for	-131
ne	-132
▁ma	-133
▁par	-134
▁di	-135
▁te	-136
ht	-137
▁pl	-138
▁don	-139
ill	-140
im	-141
▁st	-142
▁this	-143
▁est	-144
au	-145
ont	-146
ch	-147
os	-148
ét	-149
and	-150
▁li	-151
▁ç	-152
ment	-153
pp	-154
▁not	-155
▁ça	-156
▁my	-157
ge	-158
▁your	-159
ad	-160
ans	-161
her	-162
▁as	-163
▁une	-164
▁des	-165
res	-166
ol	-167
ed	-168
▁all	-169
▁was	-170
ain	-171
eux	-172
ight	-173
▁"	-174
un	-175
ter	-176
▁so	-177
ust	-178
▁have	-179
▁mon	-180
ur	-181
▁ca	-182
ith	-183
▁can	-184
eur	-185
▁are	-186
ci	-187
▁sh	-188
▁with	-189
▁no	-190
▁at	-191
od	-192
▁kn	-193
av	-194
▁know	-195
▁au	-196
▁dé	-197
▁moi	-198
▁lo	-199
ons	-200
▁nous	-201
▁si	-202
end	-203
ould	-204
▁get	-205
ble	-206
▁pr	-207
▁mais	-208
▁qui	-209
▁som	-210
ort	-211
ct	-212
▁du	-213
ers	-214
ly	-215
▁but	-216
oir	-217
▁they	-218
▁there	-219
▁ou	-220
▁ar	-221
êt	-222
ard	-223
onn	-224
......	-225
▁ave	-226
ore	-227
▁dans	-228
▁fr	-229
all	-230
ren	-231
que	-232
mp	-233
▁here	-234
▁ta	-235
si	-236
ck	-237
▁al	-238
▁ab	-239
pe	-240
hing	-241
▁just	-242
▁out	-243
▁like	-244
ff	-245
▁tout	-246
ée	-247
▁whe	-248
ra	-249
ok	-250
▁up	-251
▁pro	-252
ess	-253
id	-254
aire	-255
ère	-256
▁sur	-257
▁ex	-258
ose	-259
▁man	-260
▁plus	-261
▁did	-262
op	-263
ag	-264
▁him	-265
▁av	-266
▁got	-267
ation	-268
ure	-269
▁suis	-270
ine	-271
▁sa	-272
▁she	-273
ack	-274
▁fait	-275
ist	-276
▁bien	-277
▁va	-278
ui	-279
▁ét	-280
che	-281
ul	-282
st	-283
▁one	-284
▁am	-285
▁avec	-286
▁elle	-287
▁about	-288
▁if	-289
ink	-290
▁êt	-291
▁right	-292
▁mar	-293
▁peu	-294
ue	-295
ord	-296
▁fe	-297
▁toi	-298
és	-299
ite	-300
one	-301
▁want	-302
▁'	-303
ind	-304
▁now	-305
▁any	-306
▁ve	-307
ois	-308
use	-309
▁co	-310
oun	-311
▁how	-312
ong	-313
▁see	-314
▁ser	-315
ens	-316
ry	-317
ate	-318
rai	-319
ive	-320
▁gu	-321
age	-322
▁her	-323
▁who	-324
▁é	-325
▁non	-326
oug	-327
aut	-328
mb	-329
▁will	-330
▁ever	-331
▁dis	-332
▁some	-333
▁think	-334
oy	-335
▁con	-336
▁come	-337
▁ti	-338
ven	-339
▁br	-340
▁faire	-341
ors	-342
ille	-343
▁comme	-344
▁cl	-345
ès	-346
ier	-347
▁ye	-348
▁là	-349
el	-350
ab	-351
▁or	-352
▁ils	-353
▁let	-354
▁comp	-355
▁wor	-356
▁part	-357
▁look	-358
uck	-359
▁ré	-360
▁gr	-361
ette	-362
▁us	-363
▁bl	-364
▁quel	-365
▁bon	-366
ap	-367
▁{	-368
if	-369
▁good	-370
int	-371
▁dit	-372
▁ton	-373
▁his	-374
▁veux	-375
▁es	-376
ice	-377
ace	-378
art	-379
ally	-380
▁them	-381
▁lui	-382
um	-383
app	-384
ance	-385
▁oh	-386
▁say	-387
ang	-388
onna	-389
▁from	-390
ah	-391
▁être	-392
▁back	-393
▁che	-394
▁tou	-395
▁res	-396
▁son	-397
▁pe	-398
own	-399
ast	-400
▁cont	-401
▁would	-402
▁app	-403
ours	-404
▁going	-405
▁att	-406
▁off	-407
▁rien	-408
▁sais	-409
ds	-410
▁ag	-411
▁peut	-412
▁well	-413
▁mo	-414
▁take	-415
bl	-416
▁every	-417
▁quoi	-418
▁sont	-419
ez	-420
uis	-421
ca	-422
ux	-423
▁tell	-424
▁vot	-425
▁where	-426
▁ici	-427
▁time	-428
▁ver	-429
▁sp	-430
▁gonna	-431
▁ok	-432
▁oui	-433
▁why	-434
▁when	-435
▁dire	-436
▁ent	-437
▁<	-438
▁could	-439
▁votre	-440
way	-441
ouv	-442
▁cr	-443
▁vi	-444
▁ro	-445
▁per	-446
ave	-447
ond	-448
ner	-449
red	-450
ase	-451
itt	-452
▁were	-453
▁dev	-454
ank	-455
▁been	-456
▁mer	-457
oup	-458
▁où	-459
▁had	-460
ted	-461
▁pre	-462
aid	-463
▁cette	-464
ak	-465
▁ple	-466
▁down	-467
▁thing	-468
mes	-469
▁car	-470
▁ren	-471
other	-472
▁hom	-473
ep	-474
▁vrai	-475
alk	-476
ass	-477
▁somet	-478
▁then	-479
ions	-480
▁by	-481
▁vais	-482
tre	-483
▁jo	-484
ound	-485
ick	-486
ody	-487
▁jam	-488
▁cro	-489
▁vou	-490
▁fais	-491
ars	-492
ame	-493
quoi	-494
▁our	-495
able	-496
iss	-497
▁fuck	-498
iens	-499
▁pourquoi	-500
thing	-501
ost	-502
▁aut	-503
ise	-504
▁peux	-505
ies	-506
▁comment	-507
▁quand	-508
▁way	-509
▁tro	-510
ouve	-511
▁bo	-512
ête	-513
man	-514
▁didn	-515
▁min	-516
fe	-517
be	-518
ér	-519
▁ai	-520
▁fin	-521
ler	-522
ough	-523
ique	-524
ile	-525
ins	-526
pr	-527
▁--	-528
▁over	-529
▁int	-530
."	-531
▁has	-532
▁pet	-533
▁reg	-534
rer	-535
▁yeah	-536
éri	-537
per	-538
ussi	-539
ité	-540
▁put	-541
▁never	-542
▁something	-543
était	-544
▁jamais	-545
act	-546
▁mê	-547
▁make	-548
▁pass	-549
▁pers	-550
▁fl	-551
sel	-552
▁need	-553
▁ho	-554
▁too	-555
elle	-556
▁mr	-557
▁po	-558
▁faut	-559
▁voi	-560
▁yes	-561
▁tous	-562
cc	-563
▁ret	-564
▁ter	-565
▁more	-566
▁does	-567
▁may	-568
▁comm	-569
▁mat	-570
▁très	-571
les	-572
▁mes	-573
▁alors	-574
▁mal	-575
ach	-576
▁guy	-577
ked	-578
▁même	-579
▁lais	-580
iv	-581
mps	-582
▁imp	-583
▁chose	-584
body	-585
▁sc	-586
une	-587
▁ces	-588
▁jus	-589
are	-590
cause	-591
air	-592
▁tw	-593
▁happ	-594
▁long	-595
▁pren	-596
ittle	-597
▁ass	-598
▁day	-599
▁very	-600
▁seu	-601
▁deux	-602
▁talk	-603
ence	-604
eurs	-605
▁really	-606
ange	-607
▁ke	-608
éc	-609
▁peop	-610
▁little	-611
ert	-612
▁said	-613
ign	-614
orte	-615
▁́	-616
▁only	-617
▁sec	-618
ils	-619
▁people	-620
▁voir	-621
▁okay	-622
ity	-623
▁était	-624
ire	-625
▁bet	-626
pl	-627
sez	-628
▁arri	-629
▁avez	-630
▁god	-631
cher	-632
dre	-633
▁enc	-634
pt	-635
▁ont	-636
ich	-637
onne	-638
▁conn	-639
▁vie	-640
▁should	-641
reat	-642
▁ven	-643
▁aussi	-644
▁love	-645
▁pu	-646
mber	-647
▁cour	-648
▁bu	-649
▁alle	-650
ress	-651
anc	-652
oute	-653
rais	-654
ther	-655
uit	-656
▁mu	-657
▁give	-658
▁af	-659
▁dem	-660
rent	-661
▁ph	-662
▁fer	-663
▁dr	-664
▁work	-665
ls	-666
self	-667
mm	-668
▁fri	-669
ends	-670
▁new	-671
▁hel	-672
lé	-673
▁because	-674
▁sav	-675
▁hey	-676
▁été	-677
ree	-678
▁two	-679
arde	-680
ought	-681
th	-682
ish	-683
▁call	-684
lie	-685
▁enf	-686
▁mean	-687
▁und	-688
▁mort	-689
▁êtes	-690
▁fo	-691
▁allez	-692
att	-693
▁char	-694
▁ad	-695
én	-696
aient	-697
ip	-698
▁please	-699
▁again	-700
enant	-701
▁fem	-702
orm	-703
we	-704
▁encore	-705
▁pri	-706
▁these	-707
▁pos	-708
▁mom	-709
▁maint	-710
ants	-711
ière	-712
oire	-713
▁other	-714
ty	-715
▁mi	-716
▁mont	-717
▁temps	-718
▁even	-719
▁must	-720
▁ans	-721
ning	-722
▁vu	-723
lles	-724
di	-725
▁rec	-726
▁wan	-727
▁sort	-728
▁vas	-729
▁wait	-730
▁met	-731
▁sans	-732
▁sal	-733
amp	-734
ger	-735
▁sor	-736
ting	-737
▁thank	-738
▁rep	-739
jours	-740
iz	-741
▁veu	-742
▁quelqu	-743
▁monde	-744
▁jour	-745
▁toujours	-746
ph	-747
▁sure	-748
▁fir	-749
ôt	-750
ale	-751
rait	-752
▁hell	-753
▁éc	-754
ght	-755
acc	-756
▁notre	-757
▁bou	-758
la	-759
▁maintenant	-760
fore	-761
▁bar	-762
▁much	-763
▁into	-764
▁place	-765
iez	-766
▁pay	-767
▁pré	-768
▁coup	-769
▁fois	-770
▁vraiment	-771
ide	-772
▁spe	-773
▁crois	-774
▁grand	-775
▁wr	-776
ouver	-777
▁dés	-778
▁help	-779
▁pol	-780
▁sû	-781
▁beau	-782
▁first	-783
▁feel	-784
▁find	-785
ather	-786
▁cher	-787
▁kill	-788
ient	-789
ail	-790
▁anything	-791
uc	-792
ction	-793
▁doing	-794
▁trop	-795
ern	-796
▁bes	-797
ense	-798
▁try	-799
dy	-800
▁personne	-801
▁eu	-802
▁nothing	-803
get	-804
rez	-805
lez	-806
▁before	-807
▁sorry	-808
▁their	-809
▁big	-810
▁dois	-811
▁ii	-812
▁stu	-813
▁sou	-814
oin	-815
▁won	-816
▁rem	-817
▁thr	-818
▁name	-819
sed	-820
▁quelque	-821
ves	-822
▁juste	-823
▁keep	-824
▁arr	-825
ute	-826
▁life	-827
▁avait	-828
day	-829
▁diff	-830
ft	-831
▁</	-832
▁happen	-833
▁cor	-834
▁wat	-835
▁plan	-836
▁quest	-837
aine	-838
▁aux	-839
▁leur	-840
né	-841
ving	-842
ré	-843
▁than	-844
▁pens	-845
▁el	-846
▁away	-847
▁sir	-848
▁dep	-849
▁voul	-850
ady	-851
▁hand	-852
ath	-853
ict	-854
▁dieu	-855
▁avant	-856
▁still	-857
▁petit	-858
ild	-859
ia	-860
▁night	-861
▁gir	-862
og	-863
▁boy	-864
▁sau	-865
▁puis	-866
wn	-867
▁merci	-868
ome	-869
▁fam	-870
▁after	-871
▁old	-872
ole	-873
▁cons	-874
▁thought	-875
▁mor	-876
▁femme	-877
▁rev	-878
▁gl	-879
▁pris	-880
▁nom	-881
▁those	-882
ème	-883
▁trav	-884
▁supp	-885
ros	-886
ouse	-887
▁regarde	-888
ures	-889
▁act	-890
▁déj	-891
▁besoin	-892
▁pap	-893
imp	-894
▁maybe	-895
▁aller	-896
aux	-897
ris	-898
▁[	-899
▁père	-900
oc	-901
▁kid	-902
▁tur	-903
▁sm	-904
▁chez	-905
▁vos	-906
▁men	-907
pect	-908
▁list	-909
▁(	-910
bre	-911
▁tri	-912
▁last	-913
▁home	-914
▁veut	-915
ante	-916
▁belie	-917
ory	-918
ié	-919
▁better	-920
▁around	-921
▁ins	-922
▁dro	-923
aî	-924
du	-925
▁exc	-926
▁shit	-927
ets	-928
▁things	-929
ny	-930
▁parler	-931
ations	-932
▁ses	-933
▁real	-934
ded	-935
▁bas	-936
▁told	-937
▁great	-938
ache	-939
vers	-940
mer	-941
▁ll	-942
▁vois	-943
king	-944
▁made	-945
▁z	-946
ret	-947
na	-948
dent	-949
▁everything	-950
▁nouve	-951
▁ain	-952
▁end	-953
▁pres	-954
▁sy	-955
▁avoir	-956
▁miss	-957
▁stay	-958
▁sûr	-959
ta	-960
▁autre	-961
vre	-962
▁gen	-963
▁connais	-964
hn	-965
▁hear	-966
▁stop	-967
▁déc	-968
▁show	-969
ways	-970
▁jou	-971
▁dead	-972
▁cas	-973
▁rép	-974
tes	-975
▁bus	-976
▁believe	-977
vez	-978
vent	-979
▁conf	-980
sible	-981
▁moment	-982
▁play	-983
▁viens	-984
▁doesn	-985
▁die	-986
▁years	-987
▁cal	-988
▁dou	-989
ood	-990
ains	-991
▁cou	-992
▁rest	-993
▁env	-994
▁ju	-995
▁world	-996
▁leave	-997
▁op	-998
▁vis	-999
iqu	-1000
▁sera	-1001
ub	-1002
▁always	-1003
▁aur	-1004
az	-1005
ey	-1006
▁wom	-1007
▁chance	-1008
▁tes	-1009
étais	-1010
erst	-1011
avais	-1012
▁reste	-1013
▁acc	-1014
▁sl	-1015
▁ty	-1016
jour	-1017
▁bad	-1018
▁comb	-1019
dez	-1020
▁fucking	-1021
▁reme	-1022
accord	-1023
▁ac	-1024
▁sent	-1025
▁mag	-1026
▁parce	-1027
ition	-1028
oit	-1029
ount	-1030
▁nice	-1031
▁care	-1032
▁prom	-1033
ces	-1034
ines	-1035
vé	-1036
près	-1037
my	-1038
▁pouv	-1039
▁ord	-1040
▁mieux	-1041
utes	-1042
▁lot	-1043
▁ste	-1044
".	-1045
▁har	-1046
▁through	-1047
là	-1048
▁pat	-1049
ex	-1050
▁listen	-1051
endre	-1052
ug	-1053
▁bri	-1054
min	-1055
▁remember	-1056
▁kind	-1057
▁depuis	-1058
▁voy	-1059
anger	-1060
▁mother	-1061
ved	-1062
je	-1063
▁underst	-1064
▁déjà	-1065
▁john	-1066
▁cle	-1067
▁soir	-1068
▁bre	-1069
▁dét	-1070
ful	-1071
▁head	-1072
▁bro	-1073
▁ten	-1074
▁ess	-1075
gent	-1076
▁girl	-1077
▁inc	-1078
▁seule	-1079
▁après	-1080
▁doit	-1081
▁gens	-1082
▁minutes	-1083
ince	-1084
▁point	-1085
arr	-1086
▁pi	-1087
▁three	-1088
▁laiss	-1089
mble	-1090
▁fi	-1091
ned	-1092
▁voit	-1093
▁money	-1094
▁hum	-1095
▁rais	-1096
▁house	-1097
ici	-1098
ats	-1099
▁aff	-1100
▁question	-1101
▁sit	-1102
▁prem	-1103
ms	-1104
▁guys	-1105
▁toute	-1106
▁demand	-1107
imes	-1108
oth	-1109
▁inter	-1110
aime	-1111
▁seul	-1112
▁inv	-1113
▁father	-1114
asse	-1115
▁mill	-1116
▁mère	-1117
▁tuer	-1118
▁fille	-1119
iste	-1120
▁homme	-1121
▁voilà	-1122
nez	-1123
▁rapp	-1124
▁dern	-1125
▁passe	-1126
▁ob	-1127
▁nos	-1128
él	-1129
ade	-1130
▁came	-1131
▁understand	-1132
▁coming	-1133
▁run	-1134
▁serv	-1135
▁cop	-1136
ek	-1137
être	-1138
its	-1139
▁tour	-1140
ote	-1141
▁fun	-1142
coup	-1143
▁mec	-1144
side	-1145
▁bonne	-1146
ii	-1147
▁dad	-1148
▁isn	-1149
dd	-1150
▁another	-1151
oses	-1152
▁bit	-1153
▁done	-1154
▁beaucoup	-1155
▁prop	-1156
▁sign	-1157
▁gar	-1158
▁mam	-1159
▁left	-1160
▁which	-1161
▁sho	-1162
▁emp	-1163
ention	-1164
▁mis	-1165
ém	-1166
lled	-1167
▁ask	-1168
▁vol	-1169
▁hold	-1170
▁trouv	-1171
▁cert	-1172
up	-1173
▁dép	-1174
▁sens	-1175
▁tom	-1176
▁pa	-1177
▁war	-1178
autre	-1179
▁change	-1180
▁im	-1181
▁prof	-1182
cer	-1183
▁enough	-1184
▁fil	-1185
ète	-1186
▁faites	-1187
▁fight	-1188
ps	-1189
▁hur	-1190
▁bab	-1191
ts	-1192
ène	-1193
illes	-1194
▁merde	-1195
ary	-1196
you	-1197
▁gotta	-1198
ake	-1199
▁compl	-1200
▁super	-1201
▁laisse	-1202
endu	-1203
▁child	-1204
ég	-1205
ées	-1206
▁ni	-1207
▁désol	-1208
amn	-1209
▁compren	-1210
▁police	-1211
▁chr	-1212
▁auc	-1213
▁wrong	-1214
▁voulez	-1215
lly	-1216
par	-1217
kes	-1218
▁mind	-1219
▁might	-1220
▁trois	-1221
▁ey	-1222
ater	-1223
ated	-1224
▁meet	-1225
▁peur	-1226
xt	-1227
▁cap	-1228
▁kne	-1229
ché	-1230
▁same	-1231
qui	-1232
io	-1233
▁being	-1234
▁nu	-1235
▁sch	-1236
▁gén	-1237
▁inf	-1238
▁own	-1239
▁room	-1240
▁contin	-1241
éd	-1242
▁truc	-1243
▁sw	-1244
aud	-1245
▁dir	-1246
▁ie	-1247
▁open	-1248
here	-1249
erre	-1250
▁cra	-1251
▁getting	-1252
ife	-1253
▁nuit	-1254
▁beaut	-1255
ches	-1256
▁cent	-1257
▁hard	-1258
▁mus	-1259
ark	-1260
▁ben	-1261
▁face	-1262
▁probl	-1263
don	-1264
▁cri	-1265
▁week	-1266
▁maison	-1267
cept	-1268
▁friend	-1269
▁hu	-1270
▁fine	-1271
▁bur	-1272
▁job	-1273
▁tête	-1274
▁wanted	-1275
sieur	-1276
▁gent	-1277
▁brother	-1278
▁talking	-1279
aill	-1280
▁cet	-1281
▁wanna	-1282
by	-1283
ards	-1284
ily	-1285
aque	-1286
▁watch	-1287
ente	-1288
▁mur	-1289
til	-1290
▁uh	-1291
ious	-1292
▁col	-1293
▁parle	-1294
▁monsieur	-1295
▁yourself	-1296
▁happened	-1297
▁saw	-1298
▁savoir	-1299
▁move	-1300
▁choses	-1301
▁else	-1302
▁star	-1303
ream	-1304
▁papa	-1305
tr	-1306
avez	-1307
ton	-1308
▁str	-1309
▁porte	-1310
▁jack	-1311
▁most	-1312
lo	-1313
▁mad	-1314
▁donc	-1315
▁fu	-1316
▁rob	-1317
▁gros	-1318
ues	-1319
▁train	-1320
▁soit	-1321
nes	-1322
▁gra	-1323
▁vite	-1324
aie	-1325
▁baby	-1326
ages	-1327
aît	-1328
▁live	-1329
▁many	-1330
▁seen	-1331
▁suppose	-1332
sh	-1333
▁next	-1334
▁under	-1335
▁excuse	-1336
▁someone	-1337
co	-1338
▁christ	-1339
▁bring	-1340
▁mot	-1341
▁jusqu	-1342
?"	-1343
ouvez	-1344
▁heard	-1345
▁course	-1346
▁wasn	-1347
▁best	-1348
▁sous	-1349
▁import	-1350
▁prendre	-1351
mande	-1352
▁fils	-1353
▁start	-1354
▁passer	-1355
▁fall	-1356
▁passé	-1357
uss	-1358
▁eat	-1359
▁heure	-1360
▁woman	-1361
▁looking	-1362
▁sle	-1363
▁port	-1364
▁proble	-1365
▁cela	-1366
▁ann	-1367
▁pau	-1368
▁second	-1369
élé	-1370
▁prends	-1371
ied	-1372
oss	-1373
▁hé	-1374
▁dur	-1375
▁knew	-1376
▁went	-1377
iers	-1378
▁minute	-1379
▁enfants	-1380
lt	-1381
aught	-1382
gan	-1383
▁quelle	-1384
▁expl	-1385
▁ah	-1386
▁sol	-1387
▁ouais	-1388
▁regard	-1389
▁sommes	-1390
▁rel	-1391
▁cond	-1392
▁avons	-1393
▁déb	-1394
▁four	-1395
▁bat	-1396
▁pret	-1397
▁found	-1398
▁today	-1399
ments	-1400
▁inst	-1401
▁swe	-1402
▁contr	-1403
▁retour	-1404
ki	-1405
▁croy	-1406
▁arrête	-1407
gn	-1408
arri	-1409
endant	-1410
▁$	-1411
▁moins	-1412
▁partir	-1413
▁stand	-1414
▁petite	-1415
igh	-1416
▁prés	-1417
▁vers	-1418
▁assez	-1419
ande	-1420
row	-1421
▁mess	-1422
▁mour	-1423
çon	-1424
▁ref	-1425
▁putain	-1426
ott	-1427
▁pense	-1428
▁wouldn	-1429
▁without	-1430
▁hal	-1431
▁jours	-1432
▁called	-1433
ister	-1434
▁count	-1435
ock	-1436
▁trans	-1437
▁entre	-1438
▁trouver	-1439
ffe	-1440
ents	-1441
▁trou	-1442
▁dess	-1443
▁matter	-1444
▁*	-1445
▁esp	-1446
▁mil	-1447
▁trying	-1448
▁turn	-1449
▁frank	-1450
▁ec	-1451
land	-1452
▁toutes	-1453
▁mari	-1454
ling	-1455
▁far	-1456
ready	-1457
▁inte	-1458
omp	-1459
cial	-1460
▁took	-1461
ider	-1462
▁raison	-1463
aires	-1464
▁type	-1465
gr	-1466
▁télé	-1467
gether	-1468
▁dri	-1469
▁days	-1470
▁hist	-1471
▁hor	-1472
▁six	-1473
ud	-1474
▁hon	-1475
▁sang	-1476
▁myself	-1477
son	-1478
iness	-1479
▁doct	-1480
ères	-1481
▁read	-1482
▁whole	-1483
▁set	-1484
▁wife	-1485
▁break	-1486
▁dû	-1487
▁eh	-1488
illed	-1489
▁couldn	-1490
ras	-1491
▁pow	-1492
appelle	-1493
▁fou	-1494
▁use	-1495
▁together	-1496
ib	-1497
ult	-1498
▁vict	-1499
▁once	-1500
▁contre	-1501
the	-1502
▁déf	-1503
▁dest	-1504
zy	-1505
cle	-1506
inc	-1507
▁mas	-1508
▁desc	-1509
▁word	-1510
▁bor	-1511
▁désolé	-1512
ually	-1513
▁donne	-1514
▁haven	-1515
▁sait	-1516
▁says	-1517
ian	-1518
▁speak	-1519
▁already	-1520
esp	-1521
ible	-1522
avoir	-1523
semble	-1524
era	-1525
▁gag	-1526
ever	-1527
▁door	-1528
▁voiture	-1529
▁essay	-1530
▁main	-1531
ley	-1532
▁gun	-1533
▁allons	-1534
come	-1535
▁sac	-1536
▁champ	-1537
▁sortir	-1538
▁́s	-1539
▁conc	-1540
▁hein	-1541
▁resp	-1542
▁ami	-1543
▁everybody	-1544
▁maman	-1545
ital	-1546
▁savez	-1547
▁while	-1548
▁autres	-1549
▁somebody	-1550
▁appel	-1551
▁killed	-1552
▁combien	-1553
▁voulais	-1554
▁fout	-1555
hed	-1556
rit	-1557
▁eas	-1558
▁sleep	-1559
ule	-1560
▁parf	-1561
omb	-1562
ried	-1563
▁thanks	-1564
▁morning	-1565
ool	-1566
▁id	-1567
▁ball	-1568
rew	-1569
llow	-1570
▁sing	-1571
ob	-1572
▁gone	-1573
ial	-1574
▁sk	-1575
▁hope	-1576
▁oubl	-1577
▁ap	-1578
▁rê	-1579
▁fort	-1580
der	-1581
▁hun	-1582
ances	-1583
▁guess	-1584
▁ready	-1585
▁wants	-1586
▁entendu	-1587
"?	-1588
▁beautif	-1589
▁problème	-1590
ép	-1591
▁suff	-1592
▁tard	-1593
▁chéri	-1594
▁ide	-1595
▁gard	-1596
▁pouvez	-1597
tez	-1598
▁cat	-1599
▁ange	-1600
▁few	-1601
aille	-1602
▁walk	-1603
▁alone	-1604
cont	-1605
▁sem	-1606
iter	-1607
▁simp	-1608
▁close	-1609
▁rentre	-1610
▁chercher	-1611
ates	-1612
▁fac	-1613
rents	-1614
▁disc	-1615
▁diffe	-1616
▁exact	-1617
▁demain	-1618
▁ram	-1619
led	-1620
▁ind	-1621
▁tonight	-1622
▁attention	-1623
▁air	-1624
▁pretty	-1625
ical	-1626
▁huh	-1627
▁demande	-1628
▁exp	-1629
▁nat	-1630
▁prob	-1631
▁hommes	-1632
▁ris	-1633
▁nobody	-1634
▁serait	-1635
▁possible	-1636
ru	-1637
▁deal	-1638
uth	-1639
▁cam	-1640
▁choi	-1641
▁pal	-1642
venir	-1643
▁tant	-1644
where	-1645
▁friends	-1646
▁hello	-1647
▁terri	-1648
▁command	-1649
ane	-1650
ork	-1651
▁used	-1652
▁vieux	-1653
▁important	-1654
▁hi	-1655
▁ago	-1656
ating	-1657
ng	-1658
▁eng	-1659
▁yet	-1660
▁dites	-1661
▁gars	-1662
aurais	-1663
▁vient	-1664
▁trouvé	-1665
▁ev	-1666
▁camp	-1667
▁souv	-1668
▁beautiful	-1669
ys	-1670
olog	-1671
▁aim	-1672
▁five	-1673
▁lost	-1674
cus	-1675
▁dan	-1676
▁hit	-1677
▁law	-1678
▁elles	-1679
</	-1680
▁abs	-1681
▁fre	-1682
ron	-1683
ôle	-1684
▁check	-1685
▁salut	-1686
▁business	-1687
ime	-1688
▁heart	-1689
onder	-1690
▁problem	-1691
ots	-1692
▁pie	-1693
▁rad	-1694
▁rester	-1695
quer	-1696
▁mach	-1697
▁vont	-1698
▁year	-1699
ics	-1700
ica	-1701
▁meill	-1702
gg	-1703
roy	-1704
vais	-1705
▁terre	-1706
▁plaît	-1707
▁school	-1708
▁ý	-1709
wer	-1710
orter	-1711
▁yeux	-1712
▁since	-1713
▁venir	-1714
▁lib	-1715
▁family	-1716
▁hot	-1717
▁bais	-1718
▁phot	-1719
enc	-1720
▁black	-1721
▁drink	-1722
▁person	-1723
▁such	-1724
ken	-1725
▁cel	-1726
▁def	-1727
▁soon	-1728
▁cham	-1729
▁travail	-1730
▁quelques	-1731
▁frère	-1732
▁prend	-1733
▁mé	-1734
▁rid	-1735
▁wonder	-1736
▁laisser	-1737
▁cut	-1738
temps	-1739
▁death	-1740
▁bonjour	-1741
▁ép	-1742
▁prêt	-1743
▁journ	-1744
▁looks	-1745
éro	-1746
chez	-1747
▁happy	-1748
▁light	-1749
▁phone	-1750
so	-1751
igne	-1752
▁sex	-1753
▁fini	-1754
▁mine	-1755
▁anyone	-1756
erri	-1757
▁fut	-1758
▁rés	-1759
ienne	-1760
▁shut	-1761
▁surv	-1762
▁children	-1763
ete	-1764
iend	-1765
▁ang	-1766
▁beh	-1767
▁occ	-1768
▁tomb	-1769
em	-1770
▁retr	-1771
▁shoot	-1772
▁art	-1773
▁dra	-1774
▁tué	-1775
orrow	-1776
▁pain	-1777
▁knows	-1778
▁rac	-1779
▁tra	-1780
▁rencont	-1781
▁ed	-1782
▁boss	-1783
▁aw	-1784
▁ia	-1785
▁gri	-1786
veill	-1787
▁book	-1788
argent	-1789
▁tomorrow	-1790
▁cul	-1791
▁cause	-1792
▁parents	-1793
▁saying	-1794
▁famille	-1795
▁arm	-1796
no	-1797
appe	-1798
▁belle	-1799
▁fuckin	-1800
▁luck	-1801
▁story	-1802
▁suite	-1803
▁prison	-1804
less	-1805
iche	-1806
ître	-1807
▁plais	-1808
▁water	-1809
▁forget	-1810
▁arrive	-1811
ying	-1812
▁crazy	-1813
▁ville	-1814
▁certain	-1815
▁pendant	-1816
▁damn	-1817
endez	-1818
ience	-1819
▁perm	-1820
tement	-1821
▁celui	-1822
▁ge	-1823
ager	-1824
▁eux	-1825
▁trouve	-1826
▁côt	-1827
▁sam	-1828
▁aucun	-1829
▁later	-1830
▁until	-1831
▁everyone	-1832
▁dav	-1833
▁del	-1834
▁gre	-1835
rence	-1836
▁attends	-1837
▁comprends	-1838
ude	-1839
▁fa	-1840
▁late	-1841
▁front	-1842
ster	-1843
iques	-1844
▁perdu	-1845
▁devant	-1846
▁secret	-1847
any	-1848
urs	-1849
aimer	-1850
hui	-1851
▁idea	-1852
ither	-1853
jourd	-1854
iel	-1855
ques	-1856
riez	-1857
▁pays	-1858
▁nouveau	-1859
▁ensemble	-1860
▁haut	-1861
▁mois	-1862
▁ship	-1863
ression	-1864
ason	-1865
▁viv	-1866
▁écoute	-1867
▁chaque	-1868
men	-1869
oie	-1870
ings	-1871
iver	-1872
▁mau	-1873
▁quit	-1874
▁voud	-1875
▁bill	-1876
▁power	-1877
med	-1878
▁eyes	-1879
▁ecoute	-1880
to	-1881
ber	-1882
vis	-1883
▁tre	-1884
▁each	-1885
▁stuff	-1886
▁times	-1887
▁lou	-1888
▁amis	-1889
▁shot	-1890
▁longtemps	-1891
pped	-1892
▁pen	-1893
▁sat	-1894
▁mourir	-1895
rir	-1896
▁eff	-1897
▁emb	-1898
▁rou	-1899
▁doll	-1900
▁pouvoir	-1901
outh	-1902
▁vér	-1903
▁tiens	-1904
llement	-1905
▁fai	-1906
▁shall	-1907
▁guerre	-1908
▁heures	-1909
ution	-1910
▁leurs	-1911
▁surpr	-1912
▁young	-1913
▁revoir	-1914
▁aujourd	-1915
lot	-1916
ual	-1917
▁sub	-1918
▁cool	-1919
▁hands	-1920
▁dog	-1921
▁sil	-1922
▁city	-1923
▁bal	-1924
▁appe	-1925
▁stup	-1926
ossible	-1927
▁â	-1928
▁cin	-1929
▁fact	-1930
▁inside	-1931
▁dég	-1932
▁emm	-1933
▁food	-1934
▁half	-1935
▁dream	-1936
tres	-1937
▁vir	-1938
▁both	-1939
▁gave	-1940
▁wind	-1941
ash	-1942
ettes	-1943
▁lieu	-1944
▁profess	-1945
eau	-1946
▁mid	-1947
▁true	-1948
▁white	-1949
▁worry	-1950
▁donner	-1951
ize	-1952
▁gam	-1953
▁van	-1954
▁force	-1955
▁bag	-1956
▁dist	-1957
▁easy	-1958
▁month	-1959
ann	-1960
▁forg	-1961
▁sois	-1962
▁simple	-1963
cl	-1964
agne	-1965
nent	-1966
▁prie	-1967
▁arrivé	-1968
unk	-1969
head	-1970
▁wish	-1971
▁pardon	-1972
▁laissez	-1973
▁thinking	-1974
▁seulement	-1975
bo	-1976
ino	-1977
ness	-1978
raid	-1979
▁anybody	-1980
erve	-1981
ateur	-1982
▁ele	-1983
ident	-1984
▁imag	-1985
▁dessus	-1986
erai	-1987
heure	-1988
▁side	-1989
▁sour	-1990
▁having	-1991
▁loin	-1992
▁ment	-1993
▁blood	-1994
▁savais	-1995
▁gi	-1996
▁sar	-1997
▁corps	-1998
▁touch	-1999
▁attend	-2000
emp	-2001
ator	-2002
unch	-2003
▁derri	-2004
▁direct	-2005
▁dernière	-2006
fer	-2007
ina	-2008
▁sn	-2009
▁fau	-2010
▁stre	-2011
▁afraid	-2012
▁pourrait	-2013
ève	-2014
▁beg	-2015
▁bull	-2016
▁rich	-2017
▁test	-2018
▁town	-2019
▁truth	-2020
wh	-2021
ird	-2022
▁hurt	-2023
▁partie	-2024
▁première	-2025
ze	-2026
▁ba	-2027
▁év	-2028
iment	-2029
▁actually	-2030
more	-2031
▁fat	-2032
▁fire	-2033
▁compte	-2034
êter	-2035
▁feu	-2036
▁capt	-2037
▁pick	-2038
▁sold	-2039
cident	-2040
ana	-2041
ably	-2042
uter	-2043
▁bed	-2044
▁news	-2045
▁its	-2046
▁king	-2047
uation	-2048
▁number	-2049
▁travaill	-2050
▁different	-2051
hom	-2052
▁idi	-2053
▁droit	-2054
▁supposed	-2055
iner	-2056
▁matin	-2057
▁against	-2058
▁questions	-2059
▁means	-2060
▁mettre	-2061
▁sister	-2062
nées	-2063
▁bob	-2064
▁val	-2065
▁david	-2066
▁mauvais	-2067
dge	-2068
orth	-2069
▁continue	-2070
val	-2071
▁red	-2072
chant	-2073
▁vill	-2074
▁calme	-2075
▁chois	-2076
▁party	-2077
qué	-2078
eral	-2079
▁win	-2080
▁kids	-2081
▁impossible	-2082
uer	-2083
▁fig	-2084
▁imm	-2085
▁préf	-2086
▁viol	-2087
ett	-2088
hors	-2089
▁goes	-2090
▁high	-2091
oke	-2092
bles	-2093
reux	-2094
phone	-2095
uire	-2096
▁cru	-2097
▁venu	-2098
▁voici	-2099
▁devrais	-2100
▁interes	-2101
▁maj	-2102
▁compris	-2103
aps	-2104
yle	-2105
▁send	-2106
▁human	-2107
omm	-2108
▁fav	-2109
▁amer	-2110
▁aren	-2111
▁publ	-2112
▁venez	-2113
èg	-2114
èce	-2115
▁den	-2116
▁cass	-2117
▁follow	-2118
▁country	-2119
▁ls	-2120
▁lâ	-2121
▁also	-2122
▁jouer	-2123
▁dehors	-2124
▁femmes	-2125
▁anymore	-2126
▁premier	-2127
▁dém	-2128
▁godd	-2129
▁clear	-2130
▁garde	-2131
▁aurait	-2132
▁derrière	-2133
vie	-2134
▁sca	-2135
onnes	-2136
arrive	-2137
▁diffic	-2138
▁vérité	-2139
oig	-2140
arth	-2141
▁fran	-2142
▁plein	-2143
▁anyway	-2144
▁présent	-2145
▁hab	-2146
▁idée	-2147
▁arriver	-2148
▁exactly	-2149
▁whatever	-2150
ney	-2151
▁alm	-2152
▁respect	-2153
urn	-2154
ward	-2155
▁jer	-2156
▁pan	-2157
▁york	-2158
▁comes	-2159
▁chambre	-2160
ounds	-2161
▁dorm	-2162
▁diffé	-2163
▁million	-2164
▁batt	-2165
▁suiv	-2166
▁hours	-2167
▁service	-2168
",	-2169
ric	-2170
▁́t	-2171
▁sus	-2172
▁quite	-2173
▁table	-2174
▁outside	-2175
su	-2176
orts	-2177
▁lead	-2178
▁mark	-2179
▁yours	-2180
▁working	-2181
ites	-2182
▁pig	-2183
▁rom	-2184
ss	-2185
yez	-2186
▁genre	-2187
▁answer	-2188
▁regardez	-2189
isé	-2190
not	-2191
ject	-2192
▁côté	-2193
▁free	-2194
oked	-2195
▁chef	-2196
▁absol	-2197
▁sweet	-2198
als	-2199
▁ear	-2200
▁conv	-2201
▁conna	-2202
▁manger	-2203
▁taking	-2204
occ	-2205
cell	-2206
oser	-2207
êtes	-2208
▁cur	-2209
▁line	-2210
▁court	-2211
▁behind	-2212
▁gentle	-2213
▁jim	-2214
hes	-2215
▁ln	-2216
iser	-2217
oney	-2218
iance	-2219
▁ceux	-2220
▁temp	-2221
▁danger	-2222
sy	-2223
lex	-2224
aces	-2225
roit	-2226
▁leg	-2227
▁coll	-2228
▁parlé	-2229
▁chérie	-2230
▁couple	-2231
▁grande	-2232
▁tomber	-2233
▁message	-2234
rol	-2235
ited	-2236
uses	-2237
▁rég	-2238
▁hang	-2239
▁tort	-2240
▁chang	-2241
▁clean	-2242
▁trouble	-2243
af	-2244
go	-2245
fect	-2246
lent	-2247
▁ferme	-2248
▁prote	-2249
▁situation	-2250
ste	-2251
ités	-2252
▁trust	-2253
▁women	-2254
jet	-2255
▁tal	-2256
▁bate	-2257
▁boulot	-2258
▁dernier	-2259
▁histoire	-2260
▁probably	-2261
ones	-2262
▁lar	-2263
▁almost	-2264
aimerais	-2265
▁started	-2266
ume	-2267
▁dont	-2268
▁land	-2269
▁appro	-2270
▁génér	-2271
▁morts	-2272
▁order	-2273
▁inform	-2274
vert	-2275
▁sun	-2276
▁tas	-2277
▁anim	-2278
▁asked	-2279
▁conse	-2280
▁making	-2281
▁font	-2282
▁gets	-2283
▁save	-2284
▁croire	-2285
▁ci	-2286
▁jes	-2287
▁prot	-2288
▁enfin	-2289
▁ki	-2290
utôt	-2291
▁bel	-2292
▁pot	-2293
▁alive	-2294
▁envoy	-2295
▁reason	-2296
▁dollars	-2297
▁respons	-2298
ma	-2299
ano	-2300
ides	-2301
amour	-2302
▁près	-2303
!"	-2304
indre	-2305
▁wear	-2306
▁makes	-2307
▁living	-2308
▁madame	-2309
tra	-2310
▁loc	-2311
▁game	-2312
▁waiting	-2313
mo	-2314
▁body	-2315
▁séri	-2316
▁tony	-2317
ener	-2318
▁pou	-2319
▁top	-2320
▁tot	-2321
pital	-2322
▁aura	-2323
▁coun	-2324
▁leav	-2325
▁sick	-2326
▁dar	-2327
▁fly	-2328
▁jol	-2329
▁fond	-2330
▁funny	-2331
▁reven	-2332
▁aucune	-2333
ple	-2334
▁jeune	-2335
aw	-2336
ham	-2337
ivers	-2338
▁san	-2339
▁fast	-2340
▁lord	-2341
autres	-2342
▁bless	-2343
▁donné	-2344
bor	-2345
▁lu	-2346
este	-2347
ives	-2348
▁cir	-2349
▁jeu	-2350
▁joe	-2351
▁sin	-2352
▁form	-2353
▁étais	-2354
aughter	-2355
▁cre	-2356
▁tir	-2357
aines	-2358
▁jesus	-2359
▁plutôt	-2360
▁serious	-2361
▁déci	-2362
▁lady	-2363
ission	-2364
▁quick	-2365
▁doctor	-2366
▁nouvelle	-2367
abord	-2368
▁gold	-2369
▁tire	-2370
▁married	-2371
hab	-2372
▁ru	-2373
▁sim	-2374
▁terr	-2375
▁sorte	-2376
oo	-2377
éré	-2378
▁bi	-2379
▁os	-2380
onds	-2381
homme	-2382
▁case	-2383
▁bitch	-2384
▁tried	-2385
▁dispar	-2386
ky	-2387
nis	-2388
œur	-2389
▁ble	-2390
▁réc	-2391
avait	-2392
▁norm	-2393
▁vivre	-2394
?.	-2395
mi	-2396
leur	-2397
▁din	-2398
▁died	-2399
▁paul	-2400
▁sand	-2401
▁cours	-2402
▁termin	-2403
gram	-2404
▁envie	-2405
▁offic	-2406
▁demandé	-2407
des	-2408
▁mc	-2409
resse	-2410
▁lose	-2411
▁mets	-2412
▁sûre	-2413
▁proch	-2414
?!	-2415
del	-2416
han	-2417
arre	-2418
▁fore	-2419
▁coeur	-2420
▁parti	-2421
▁voyez	-2422
▁dirait	-2423
▁devrait	-2424
rant	-2425
érer	-2426
▁cab	-2427
▁lit	-2428
▁mir	-2429
▁mission	-2430
▁pourrais	-2431
aff	-2432
oud	-2433
atre	-2434
onde	-2435
▁sors	-2436
▁trait	-2437
▁either	-2438
▁cell	-2439
▁full	-2440
▁lear	-2441
▁celle	-2442
agn	-2443
ges	-2444
rap	-2445
▁lls	-2446
▁nav	-2447
▁ray	-2448
▁hour	-2449
▁phil	-2450
▁colle	-2451
▁ir	-2452
▁aider	-2453
▁route	-2454
▁charlie	-2455
▁presque	-2456
yn	-2457
oid	-2458
airs	-2459
▁flo	-2460
▁vue	-2461
▁wel	-2462
▁aime	-2463
▁façon	-2464
▁mains	-2465
▁master	-2466
▁street	-2467
▁étaient	-2468
cted	-2469
▁bra	-2470
ately	-2471
▁bout	-2472
▁fant	-2473
▁pier	-2474
▁bouge	-2475
▁facile	-2476
▁heav	-2477
▁rome	-2478
▁favor	-2479
▁charge	-2480
▁goddamn	-2481
iot	-2482
orge	-2483
▁commun	-2484
▁figure	-2485
ush	-2486
icul	-2487
ween	-2488
▁éch	-2489
▁semaine	-2490
éb	-2491
ows	-2492
ten	-2493
ared	-2494
aider	-2495
entre	-2496
ished	-2497
▁along	-2498
▁between	-2499
▁dec	-2500
▁squ	-2501
acher	-2502
▁bons	-2503
▁girls	-2504
▁souff	-2505
▁marche	-2506
▁contact	-2507
▁parfait	-2508
eth	-2509
rest	-2510
tout	-2511
inqui	-2512
▁noir	-2513
itting	-2514
▁bient	-2515
▁grave	-2516
▁idiot	-2517
▁least	-2518
...?	-2519
ched	-2520
▁cré	-2521
▁hol	-2522
▁cinq	-2523
▁wall	-2524
▁program	-2525
hip	-2526
acle	-2527
▁hate	-2528
▁ainsi	-2529
▁marcus	-2530
▁stupid	-2531
fs	-2532
li	-2533
ames	-2534
ield	-2535
▁ded	-2536
▁dos	-2537
▁psy	-2538
auche	-2539
itude	-2540
▁deci	-2541
▁pois	-2542
▁press	-2543
▁cannot	-2544
▁changer	-2545
▁special	-2546
rée	-2547
▁cost	-2548
▁glad	-2549
veille	-2550
▁village	-2551
▁beat	-2552
▁blue	-2553
▁attendez	-2554
▁terrible	-2555
mé	-2556
▁boys	-2557
▁promis	-2558
erv	-2559
▁capit	-2560
▁deven	-2561
uel	-2562
▁souviens	-2563
fort	-2564
▁box	-2565
▁hos	-2566
▁num	-2567
▁honey	-2568
▁bientôt	-2569
▁bye	-2570
▁rap	-2571
▁safe	-2572
rou	-2573
ront	-2574
▁cha	-2575
▁ceci	-2576
▁prin	-2577
raight	-2578
▁prenez	-2579
▁sometimes	-2580
▁téléphone	-2581
uri	-2582
▁lis	-2583
▁pai	-2584
▁tim	-2585
▁wal	-2586
iller	-2587
▁club	-2588
▁pict	-2589
▁suffit	-2590
▁meilleur	-2591
▁straight	-2592
▁confiance	-2593
ût	-2594
ddy	-2595
emm	-2596
lin	-2597
vel	-2598
▁able	-2599
▁rock	-2600
▁organ	-2601
▁propos	-2602
▁cherche	-2603
▁himself	-2604
▁mrs	-2605
▁fous	-2606
▁earth	-2607
▁maître	-2608
▁daughter	-2609
▁surprise	-2610
▁ég	-2611
▁cho	-2612
▁fix	-2613
▁ouv	-2614
anche	-2615
▁meur	-2616
▁pare	-2617
▁priv	-2618
▁rose	-2619
▁choix	-2620
▁match	-2621
▁brought	-2622
▁cry	-2623
▁tar	-2624
▁pull	-2625
▁ahead	-2626
▁accident	-2627
iie	-2628
ller	-2629
▁mou	-2630
▁mét	-2631
▁séc	-2632
ument	-2633
espère	-2634
aide	-2635
apon	-2636
▁base	-2637
▁dear	-2638
▁throw	-2639
▁scared	-2640
▁croyais	-2641
▁welcome	-2642
sive	-2643
▁adm	-2644
▁jet	-2645
▁réf	-2646
ester	-2647
▁bure	-2648
▁catch	-2649
▁chant	-2650
▁excell	-2651
▁nation	-2652
▁telling	-2653
▁commence	-2654
▁millions	-2655
ef	-2656
ige	-2657
▁dî	-2658
itié	-2659
▁fête	-2660
▁daddy	-2661
▁machine	-2662
▁demander	-2663
ingue	-2664
▁sauver	-2665
ral	-2666
▁lf	-2667
aise	-2668
haps	-2669
▁sound	-2670
▁perfect	-2671
▁eye	-2672
▁len	-2673
▁tech	-2674
érieur	-2675
▁attack	-2676
▁destroy	-2677
▁feeling	-2678
▁promise	-2679
▁surtout	-2680
.!	-2681
ables	-2682
▁doute	-2683
▁syste	-2684
▁bureau	-2685
▁dedans	-2686
▁filles	-2687
▁répond	-2688
▁pensais	-2689
▁voulait	-2690
mée	-2691
aiss	-2692
▁deb	-2693
▁sel	-2694
éress	-2695
▁proc	-2696
▁state	-2697
▁client	-2698
▁nature	-2699
▁though	-2700
▁journée	-2701
▁moy	-2702
appel	-2703
▁film	-2704
▁rece	-2705
selves	-2706
▁perhaps	-2707
▁hus	-2708
▁neu	-2709
▁ride	-2710
▁messi	-2711
▁général	-2712
iff	-2713
port	-2714
▁mist	-2715
▁requ	-2716
▁drôle	-2717
▁small	-2718
▁taken	-2719
importe	-2720
▁années	-2721
▁become	-2722
▁voudrais	-2723
▁gentlemen	-2724
fri	-2725
pes	-2726
band	-2727
vres	-2728
▁tit	-2729
▁détr	-2730
▁near	-2731
▁build	-2732
alement	-2733
▁commen	-2734
▁quatre	-2735
▁general	-2736
key	-2737
ung	-2738
▁lim	-2739
▁pous	-2740
nt	-2741
où	-2742
▁dél	-2743
▁lad	-2744
▁voice	-2745
▁expect	-2746
ho	-2747
▁ur	-2748
arch	-2749
ters	-2750
▁kit	-2751
range	-2752
▁réal	-2753
▁class	-2754
▁serai	-2755
▁sécur	-2756
▁croyez	-2757
ald	-2758
enf	-2759
oubl	-2760
▁esc	-2761
▁numéro	-2762
ha	-2763
lla	-2764
nel	-2765
▁bord	-2766
▁faud	-2767
▁lang	-2768
▁rend	-2769
▁bateau	-2770
▁enfant	-2771
▁except	-2772
▁perdre	-2773
▁record	-2774
▁appelle	-2775
▁buy	-2776
▁ache	-2777
▁cold	-2778
▁fool	-2779
▁polit	-2780
▁garçon	-2781
ît	-2782
phe	-2783
rif	-2784
..."	-2785
eure	-2786
occu	-2787
▁lie	-2788
▁mod	-2789
▁pop	-2790
asser	-2791
▁hurry	-2792
▁mange	-2793
▁peine	-2794
▁seems	-2795
▁connaiss	-2796
▁tellement	-2797
▁travaille	-2798
rat	-2799
illa	-2800
vern	-2801
▁caf	-2802
▁kiki	-2803
▁préc	-2804
ically	-2805
▁office	-2806
▁penses	-2807
▁control	-2808
ury	-2809
ième	-2810
▁oublié	-2811
▁parles	-2812
ief	-2813
mmy	-2814
hist	-2815
▁edd	-2816
▁sant	-2817
▁looked	-2818
bel	-2819
hor	-2820
ories	-2821
▁felt	-2822
▁rêve	-2823
▁chien	-2824
▁pleas	-2825
▁combat	-2826
▁rentrer	-2827
cin	-2828
erc	-2829
▁ron	-2830
ettez	-2831
▁disp	-2832
▁fera	-2833
▁till	-2834
▁drive	-2835
▁company	-2836
▁content	-2837
▁running	-2838
▁regarder	-2839
rend	-2840
▁ban	-2841
▁béb	-2842
▁rav	-2843
ision	-2844
▁bast	-2845
rendre	-2846
▁exper	-2847
▁stick	-2848
▁dinner	-2849
▁racont	-2850
▁leaving	-2851
ene	-2852
ises	-2853
▁dor	-2854
▁max	-2855
▁obs	-2856
▁tue	-2857
▁team	-2858
▁mouth	-2859
▁radio	-2860
▁retrouver	-2861
gé	-2862
user	-2863
▁pur	-2864
▁morte	-2865
▁report	-2866
▁husband	-2867
chi	-2868
tin	-2869
▁sme	-2870
▁gueu	-2871
▁peter	-2872
▁captain	-2873
do	-2874
ks	-2875
ico	-2876
prit	-2877
rons	-2878
▁...	-2879
▁mme	-2880
▁coin	-2881
▁parl	-2882
▁wake	-2883
▁angel	-2884
▁needs	-2885
▁excusez	-2886
▁travers	-2887
▁messieurs	-2888
joy	-2889
mas	-2890
ague	-2891
room	-2892
▁div	-2893
▁ira	-2894
▁vit	-2895
▁ress	-2896
▁sale	-2897
▁util	-2898
itions	-2899
▁arriv	-2900
▁devez	-2901
▁major	-2902
▁music	-2903
▁months	-2904
▁montre	-2905
▁return	-2906
▁parfois	-2907
▁complete	-2908
été	-2909
iles	-2910
rice	-2911
▁det	-2912
▁ies	-2913
▁opp	-2914
▁symp	-2915
▁exist	-2916
▁write	-2917
ination	-2918
gue	-2919
ôte	-2920
▁er	-2921
urer	-2922
▁biz	-2923
▁ger	-2924
▁inn	-2925
▁pok	-2926
ility	-2927
▁hair	-2928
▁voix	-2929
▁choice	-2930
oper	-2931
well	-2932
▁blo	-2933
▁poi	-2934
▁roy	-2935
▁coch	-2936
▁road	-2937
▁stri	-2938
▁tirer	-2939
▁gentil	-2940
let	-2941
érif	-2942
▁soi	-2943
▁hier	-2944
▁puiss	-2945
▁chemin	-2946
▁conner	-2947
▁prince	-2948
▁public	-2949
▁plaisir	-2950
isse	-2951
▁add	-2952
▁lum	-2953
▁thé	-2954
▁code	-2955
▁exac	-2956
▁past	-2957
sident	-2958
▁battre	-2959
▁penser	-2960
▁capitaine	-2961
gie	-2962
seau	-2963
▁ber	-2964
▁los	-2965
▁nic	-2966
lling	-2967
right	-2968
▁alex	-2969
▁army	-2970
▁mars	-2971
▁prép	-2972
▁breat	-2973
▁lives	-2974
▁russi	-2975
▁faisait	-2976
▁position	-2977
ât	-2978
oles	-2979
iquer	-2980
▁paris	-2981
▁piece	-2982
▁rouge	-2983
▁others	-2984
▁happens	-2985
ira	-2986
aint	-2987
iting	-2988
▁chat	-2989
▁vaut	-2990
▁payer	-2991
▁tommy	-2992
usement	-2993
ove	-2994
aret	-2995
aves	-2996
▁ait	-2997
▁règ	-2998
▁arme	-2999
▁oper	-3000
▁entrer	-3001
▁docteur	-3002
▁playing	-3003
gu	-3004
of	-3005
ipp	-3006
cier	-3007
lect	-3008
▁lég	-3009
▁mel	-3010
▁por	-3011
quipe	-3012
▁blanc	-3013
▁cover	-3014
▁pensé	-3015
▁techn	-3016
▁rappelle	-3017
jo	-3018
▁hy	-3019
inst	-3020
▁ant	-3021
▁civ	-3022
▁cow	-3023
▁boat	-3024
▁slow	-3025
▁soul	-3026
cep	-3027
emb	-3028
gas	-3029
het	-3030
ules	-3031
▁fus	-3032
▁reç	-3033
▁kiss	-3034
attend	-3035
▁avais	-3036
iennent	-3037
▁strong	-3038
▁victor	-3039
▁endroit	-3040
nif	-3041
▁sé	-3042
otte	-3043
▁jui	-3044
▁spé	-3045
▁sto	-3046
ature	-3047
▁eight	-3048
▁enjoy	-3049
▁harry	-3050
▁laissé	-3051
▁inspect	-3052
▁sécurité	-3053
▁exactement	-3054
dle	-3055
ails	-3056
▁fle	-3057
istes	-3058
iving	-3059
▁dark	-3060
▁honn	-3061
▁ring	-3062
friend	-3063
▁floor	-3064
▁system	-3065
▁heureux	-3066
▁justice	-3067
▁veulent	-3068
▁president	-3069
▁park	-3070
▁lucky	-3071
▁allait	-3072
▁semble	-3073
ius	-3074
oon	-3075
ican	-3076
▁ell	-3077
▁wit	-3078
aller	-3079
▁laug	-3080
▁pire	-3081
▁aband	-3082
▁flics	-3083
▁sense	-3084
▁accept	-3085
▁shouldn	-3086
ray	-3087
ative	-3088
▁drop	-3089
▁feet	-3090
▁none	-3091
▁remp	-3092
nement	-3093
▁darling	-3094
▁affaires	-3095
▁somewhere	-3096
yer	-3097
ized	-3098
▁dix	-3099
▁ice	-3100
▁mem	-3101
▁mens	-3102
▁soci	-3103
▁begin	-3104
▁words	-3105
▁appelé	-3106
▁johnny	-3107
▁moving	-3108
▁voyage	-3109
vey	-3110
enir	-3111
ettre	-3112
▁future	-3113
▁retard	-3114
▁sounds	-3115
▁present	-3116
zz	-3117
ège	-3118
▁brû	-3119
▁roi	-3120
ateurs	-3121
▁arrêt	-3122
▁ladies	-3123
▁regret	-3124
▁rendez	-3125
▁instant	-3126
ye	-3127
▁sen	-3128
cient	-3129
▁bébé	-3130
▁hors	-3131
▁tent	-3132
▁crime	-3133
▁eddie	-3134
▁malade	-3135
▁patron	-3136
▁touche	-3137
histoire	-3138
ged	-3139
▁tv	-3140
ades	-3141
ales	-3142
ding	-3143
ices	-3144
▁dès	-3145
▁pil	-3146
▁aide	-3147
▁bois	-3148
▁song	-3149
▁sugg	-3150
▁weeks	-3151
▁devons	-3152
▁attendre	-3153
com	-3154
den	-3155
ese	-3156
ita	-3157
éra	-3158
▁bir	-3159
▁cart	-3160
▁poor	-3161
▁tran	-3162
igneur	-3163
▁hotel	-3164
▁gagner	-3165
▁imagine	-3166
èmes	-3167
▁doc	-3168
▁bomb	-3169
▁circ	-3170
▁step	-3171
▁gueule	-3172
▁serais	-3173
▁partout	-3174
▁hospital	-3175
alle	-3176
llig	-3177
▁amb	-3178
▁low	-3179
▁tax	-3180
▁début	-3181
▁forme	-3182
ication	-3183
▁govern	-3184
▁bizarre	-3185
▁courant	-3186
▁président	-3187
▁wonderful	-3188
och	-3189
vin	-3190
▁jew	-3191
▁obl	-3192
▁tor	-3193
onner	-3194
▁bras	-3195
▁creat	-3196
▁photo	-3197
▁quiet	-3198
▁spart	-3199
▁treat	-3200
▁asking	-3201
▁normal	-3202
▁reconn	-3203
▁worked	-3204
rib	-3205
arer	-3206
▁ign	-3207
▁café	-3208
▁vide	-3209
iendra	-3210
▁dance	-3211
▁innoc	-3212
▁short	-3213
▁autant	-3214
▁gauche	-3215
▁gouver	-3216
▁peuple	-3217
▁rather	-3218
env	-3219
iné	-3220
ium	-3221
off	-3222
▁yo	-3223
▁fon	-3224
▁gal	-3225
outer	-3226
école	-3227
▁assh	-3228
▁fear	-3229
▁sard	-3230
▁dress	-3231
▁monte	-3232
itation	-3233
▁confir	-3234
▁dormir	-3235
▁essayé	-3236
▁pensez	-3237
▁surviv	-3238
▁peuvent	-3239
dé	-3240
ieu	-3241
lax	-3242
raî	-3243
▁él	-3244
▁med	-3245
▁calm	-3246
▁cops	-3247
▁joue	-3248
▁améri	-3249
▁voulu	-3250
▁worth	-3251
▁calling	-3252
té	-3253
car	-3254
ardo	-3255
ball	-3256
▁jul	-3257
▁́re	-3258
elles	-3259
▁seem	-3260
▁peace	-3261
▁salle	-3262
▁sinon	-3263
▁foutre	-3264
▁fallait	-3265
▁champion	-3266
aim	-3267
ams	-3268
iii	-3269
ola	-3270
équ	-3271
imag	-3272
▁adv	-3273
▁gas	-3274
▁kat	-3275
antes	-3276
ering	-3277
▁less	-3278
▁perd	-3279
▁prov	-3280
▁faute	-3281
▁ident	-3282
▁moyen	-3283
▁patri	-3284
▁robot	-3285
▁trucs	-3286
▁appris	-3287
▁rendre	-3288
▁watching	-3289
cé	-3290
▁pir	-3291
adore	-3292
suite	-3293
▁bott	-3294
▁bour	-3295
▁suit	-3296
▁frapp	-3297
▁livre	-3298
▁relax	-3299
▁cheval	-3300
▁espèce	-3301
▁rapport	-3302
▁connaissez	-3303
▁ill	-3304
inter	-3305
▁card	-3306
▁deep	-3307
▁post	-3308
▁sauf	-3309
▁dîner	-3310
▁meant	-3311
▁soyez	-3312
▁pauvre	-3313
▁propre	-3314
▁turned	-3315
▁charles	-3316
▁montrer	-3317
▁musique	-3318
▁christmas	-3319
▁um	-3320
form	-3321
raph	-3322
▁fas	-3323
▁fen	-3324
▁fum	-3325
▁vac	-3326
roche	-3327
ustin	-3328
action	-3329
▁conne	-3330
▁known	-3331
entends	-3332
▁mariage	-3333
hin	-3334
▁loi	-3335
oires	-3336
▁brit	-3337
▁faim	-3338
▁fell	-3339
▁paix	-3340
▁boire	-3341
▁uncle	-3342
▁protect	-3343
▁intéress	-3344
▁difficile	-3345
andy	-3346
fuck	-3347
▁fol	-3348
▁nég	-3349
▁ran	-3350
mment	-3351
▁date	-3352
▁pose	-3353
▁spir	-3354
▁given	-3355
▁commenc	-3356
▁désolée	-3357
ov	-3358
ama	-3359
rès	-3360
ôme	-3361
shit	-3362
▁nor	-3363
▁kick	-3364
▁pard	-3365
▁reub	-3366
▁suic	-3367
▁vent	-3368
vision	-3369
▁smell	-3370
▁verre	-3371
▁weren	-3372
▁argent	-3373
gun	-3374
just	-3375
oyer	-3376
▁ash	-3377
▁nut	-3378
▁tru	-3379
ouvert	-3380
▁déjeu	-3381
▁learn	-3382
▁bordel	-3383
▁arrêtez	-3384
▁station	-3385
▁certains	-3386
▁conneries	-3387
ael	-3388
idé	-3389
ancy	-3390
▁dam	-3391
▁rue	-3392
dered	-3393
ressed	-3394
▁finir	-3395
▁occup	-3396
▁vérif	-3397
▁honest	-3398
ony	-3399
iant	-3400
ming	-3401
▁las	-3402
oking	-3403
▁écri	-3404
▁allow	-3405
▁blind	-3406
▁takes	-3407
▁étiez	-3408
▁garder	-3409
▁connaît	-3410
▁reviens	-3411
▁comprendre	-3412
,"	-3413
ýý	-3414
cks	-3415
hait	-3416
▁mac	-3417
▁vin	-3418
▁ciel	-3419
▁cong	-3420
▁succ	-3421
▁cache	-3422
▁chick	-3423
▁ferai	-3424
▁franç	-3425
▁réflé	-3426
▁weird	-3427
▁devoir	-3428
▁donnez	-3429
▁seront	-3430
▁bienven	-3431
ami	-3432
bes	-3433
ior	-3434
isme	-3435
▁cig	-3436
asses	-3437
zilla	-3438
▁cuis	-3439
▁foot	-3440
▁jump	-3441
▁ones	-3442
▁syst	-3443
▁carry	-3444
▁douce	-3445
▁devait	-3446
▁signal	-3447
▁marcher	-3448
▁picture	-3449
▁silence	-3450
▁souhait	-3451
▁absolute	-3452
▁sardines	-3453
▁vaisseau	-3454
▁q	-3455
▁pic	-3456
▁tôt	-3457
▁amou	-3458
▁hank	-3459
▁hung	-3460
▁join	-3461
▁honor	-3462
▁mount	-3463
▁double	-3464
▁visage	-3465
▁ensuite	-3466
▁explain	-3467
▁pouvait	-3468
ept	-3469
oci	-3470
oux	-3471
expl	-3472
▁dig	-3473
▁allé	-3474
▁blow	-3475
▁born	-3476
▁apart	-3477
▁horri	-3478
▁secur	-3479
royable	-3480
▁broken	-3481
▁harvey	-3482
▁magnif	-3483
▁vivant	-3484
▁conseil	-3485
▁sérieux	-3486
▁godzilla	-3487
▁semaines	-3488
bb	-3489
wood	-3490
▁aii	-3491
▁pac	-3492
▁empl	-3493
▁carte	-3494
▁remar	-3495
▁works	-3496
ètement	-3497
▁changé	-3498
▁intern	-3499
sib	-3500
▁ali	-3501
▁cit	-3502
ctive	-3503
▁bath	-3504
▁diam	-3505
▁repr	-3506
▁sole	-3507
▁vend	-3508
▁green	-3509
▁quitt	-3510
isation	-3511
▁entire	-3512
▁marché	-3513
▁window	-3514
▁meeting	-3515
for	-3516
▁em	-3517
▁ry	-3518
▁mér	-3519
pping	-3520
▁etre	-3521
▁file	-3522
▁toil	-3523
▁franc	-3524
▁psych	-3525
▁écrit	-3526
▁seeing	-3527
ué	-3528
lyn	-3529
éch	-3530
▁lt	-3531
ency	-3532
enty	-3533
inte	-3534
▁tém	-3535
place	-3536
▁chau	-3537
▁fair	-3538
▁prév	-3539
▁miles	-3540
▁accord	-3541
▁restez	-3542
▁happening	-3543
▁profession	-3544
ainc	-3545
medi	-3546
▁ital	-3547
▁lors	-3548
▁matt	-3549
▁nour	-3550
stairs	-3551
▁pieds	-3552
▁répon	-3553
▁caught	-3554
▁careful	-3555
▁réveill	-3556
▁entendre	-3557
▁seigneur	-3558
▁nouvelles	-3559
cif	-3560
ili	-3561
mbl	-3562
▁'.	-3563
▁doi	-3564
▁fro	-3565
▁joy	-3566
▁sad	-3567
ières	-3568
▁diri	-3569
▁fric	-3570
▁traî	-3571
▁horse	-3572
▁george	-3573
▁longer	-3574
▁information	-3575
lu	-3576
▁x	-3577
ara	-3578
hum	-3579
pper	-3580
çons	-3581
▁boug	-3582
▁clot	-3583
▁dude	-3584
▁fish	-3585
▁lond	-3586
▁froid	-3587
▁magaz	-3588
▁pokém	-3589
inquiète	-3590
▁america	-3591
▁evening	-3592
▁seconde	-3593
▁security	-3594
▁sûrement	-3595
▁commandant	-3596
ec	-3597
▁cy	-3598
▁ly	-3599
ered	-3600
teau	-3601
▁cad	-3602
▁dom	-3603
▁rat	-3604
vious	-3605
▁cous	-3606
▁hero	-3607
▁kept	-3608
▁prod	-3609
▁agent	-3610
▁march	-3611
▁produ	-3612
▁tired	-3613
▁essaie	-3614
▁immedi	-3615
▁pareil	-3616
▁terror	-3617
▁connard	-3618
▁lumière	-3619
isc	-3620
▁mè	-3621
esse	-3622
▁rum	-3623
avons	-3624
ences	-3625
▁chac	-3626
▁corp	-3627
▁iike	-3628
▁dange	-3629
▁island	-3630
▁reuben	-3631
▁bastard	-3632
▁horrible	-3633
▁commencer	-3634
▁excellent	-3635
▁travailler	-3636
mine	-3637
ross	-3638
▁jure	-3639
▁méde	-3640
ousand	-3641
▁balle	-3642
▁group	-3643
▁habit	-3644
▁helen	-3645
▁bouche	-3646
▁parlez	-3647
▁porter	-3648
▁decided	-3649
▁pouvais	-3650
▁quitter	-3651
▁intellig	-3652
▁thousand	-3653
▁personnes	-3654
br	-3655
urg	-3656
▁ya	-3657
what	-3658
▁hél	-3659
▁ros	-3660
après	-3661
▁pars	-3662
▁rele	-3663
▁shir	-3664
▁extra	-3665
▁oblig	-3666
▁shark	-3667
▁south	-3668
▁restau	-3669
▁risque	-3670
▁bullshit	-3671
▁machines	-3672
▁incroyable	-3673
ift	-3674
mar	-3675
alth	-3676
tead	-3677
▁boî	-3678
▁mex	-3679
▁grow	-3680
▁hall	-3681
▁mate	-3682
incent	-3683
tenant	-3684
▁aimer	-3685
▁chief	-3686
▁spect	-3687
▁ferais	-3688
▁handle	-3689
▁servir	-3690
▁affaire	-3691
▁asshole	-3692
▁essayer	-3693
.,	-3694
vi	-3695
onge	-3696
ured	-3697
▁ach	-3698
▁véc	-3699
ilité	-3700
▁dick	-3701
▁décl	-3702
▁pack	-3703
▁prix	-3704
▁amour	-3705
▁cross	-3706
▁willi	-3707
▁worse	-3708
▁giving	-3709
▁manque	-3710
▁notice	-3711
▁réussi	-3712
▁instead	-3713
▁souvent	-3714
▁souvenir	-3715
bi	-3716
hi	-3717
ogn	-3718
uré	-3719
▁ow	-3720
tant	-3721
▁sea	-3722
▁suc	-3723
▁amen	-3724
▁atta	-3725
▁atte	-3726
▁état	-3727
▁riche	-3728
▁sarah	-3729
▁autour	-3730
▁génial	-3731
▁libert	-3732
▁petits	-3733
▁recher	-3734
▁sacrif	-3735
▁tranqu	-3736
▁bonsoir	-3737
▁complètement	-3738
ji	-3739
agé	-3740
bye	-3741
rie	-3742
eded	-3743
▁grou	-3744
▁mich	-3745
▁swim	-3746
▁libre	-3747
▁loved	-3748
▁monst	-3749
▁spend	-3750
▁steal	-3751
▁lieutenant	-3752
▁rencontrer	-3753
▁ém	-3754
ored	-3755
êche	-3756
itive	-3757
ordre	-3758
▁enter	-3759
▁movie	-3760
▁smile	-3761
▁assass	-3762
▁finish	-3763
▁middle	-3764
▁unless	-3765
esterday	-3766
▁kidding	-3767
▁mention	-3768
▁commencé	-3769
▁contrôle	-3770
▁absolutely	-3771
cip	-3772
▁fab	-3773
aches	-3774
inite	-3775
▁band	-3776
▁cade	-3777
▁juge	-3778
▁memb	-3779
essaie	-3780
raient	-3781
▁armes	-3782
▁clair	-3783
▁round	-3784
arrêter	-3785
▁animal	-3786
▁grosse	-3787
▁possib	-3788
▁strange	-3789
▁suspect	-3790
▁yesterday	-3791
ada	-3792
eng	-3793
chen	-3794
▁anc	-3795
▁fan	-3796
▁kil	-3797
▁sup	-3798
▁andy	-3799
▁buck	-3800
▁doub	-3801
▁flic	-3802
▁mass	-3803
▁pied	-3804
▁tele	-3805
▁coffe	-3806
▁seras	-3807
▁serve	-3808
▁capable	-3809
▁journal	-3810
▁vincent	-3811
▁motherfuck	-3812
ari	-3813
orn	-3814
iqué	-3815
▁hop	-3816
▁kay	-3817
▁kum	-3818
▁pun	-3819
▁rig	-3820
inger	-3821
rench	-3822
▁gang	-3823
▁occu	-3824
▁trip	-3825
▁early	-3826
▁envir	-3827
▁parad	-3828
▁rempl	-3829
▁sortie	-3830
▁clothes	-3831
▁devenir	-3832
▁bienvenue	-3833
hy	-3834
év	-3835
pez	-3836
uie	-3837
▁gâ	-3838
▁́m	-3839
anda	-3840
lais	-3841
oint	-3842
used	-3843
éger	-3844
aking	-3845
illez	-3846
▁jess	-3847
▁nord	-3848
▁russ	-3849
▁whis	-3850
▁birth	-3851
▁milit	-3852
▁scott	-3853
▁swear	-3854
▁spirit	-3855
▁changed	-3856
▁suggest	-3857
ced	-3858
uve	-3859
cess	-3860
onte	-3861
▁choc	-3862
▁evil	-3863
▁mots	-3864
erreur	-3865
▁chans	-3866
▁gagné	-3867
▁judge	-3868
▁ouvre	-3869
▁pract	-3870
▁proud	-3871
▁sujet	-3872
▁disent	-3873
▁faudra	-3874
▁doivent	-3875
▁building	-3876
aig	-3877
itch	-3878
ôtel	-3879
▁sia	-3880
▁asse	-3881
▁avis	-3882
▁draw	-3883
▁hasn	-3884
▁racc	-3885
▁vole	-3886
▁appar	-3887
▁appre	-3888
▁bruit	-3889
▁bother	-3890
▁killing	-3891
rés	-3892
dden	-3893
▁spl	-3894
cteur	-3895
icule	-3896
▁cœur	-3897
▁piss	-3898
▁sœur	-3899
▁troy	-3900
▁dying	-3901
▁simon	-3902
▁belong	-3903
▁coffee	-3904
▁manage	-3905
▁points	-3906
▁tourne	-3907
▁within	-3908
▁patient	-3909
▁favorite	-3910
▁fighting	-3911
▁condition	-3912
gy	-3913
ular	-3914
▁naz	-3915
▁peau	-3916
▁poss	-3917
▁shar	-3918
ouvrir	-3919
▁saved	-3920
▁visit	-3921
▁carter	-3922
▁cooper	-3923
▁destin	-3924
▁droite	-3925
▁ouvert	-3926
▁soleil	-3927
▁blanche	-3928
▁mistake	-3929
▁richard	-3930
intérieur	-3931
▁personal	-3932
▁commander	-3933
▁problèmes	-3934
nd	-3935
uy	-3936
rom	-3937
âce	-3938
▁né	-3939
hrer	-3940
lish	-3941
▁rus	-3942
▁carl	-3943
▁coff	-3944
▁demi	-3945
▁lock	-3946
▁vraie	-3947
▁action	-3948
▁choose	-3949
▁sudden	-3950
▁disparu	-3951
▁difficult	-3952
▁différent	-3953
▁prochaine	-3954
za	-3955
imb	-3956
pir	-3957
unt	-3958
▁opt	-3959
▁bank	-3960
▁hide	-3961
▁voie	-3962
arrête	-3963
▁clark	-3964
▁connu	-3965
▁baiser	-3966
▁debout	-3967
▁murder	-3968
▁photog	-3969
▁appelez	-3970
▁finished	-3971
▁completely	-3972
cil	-3973
uce	-3974
cean	-3975
▁west	-3976
▁chaud	-3977
▁enfer	-3978
▁grâce	-3979
ération	-3980
▁across	-3981
▁améric	-3982
▁pierre	-3983
▁single	-3984
▁history	-3985
▁déjeuner	-3986
▁pleasure	-3987
gar	-3988
ism	-3989
▁na	-3990
agit	-3991
ists	-3992
quel	-3993
▁neg	-3994
▁arch	-3995
▁colt	-3996
▁kidn	-3997
▁mike	-3998
atique	-3999
▁civil	-4000
▁corre	-4001
▁faith	-4002
▁field	-4003
▁héros	-4004
▁plans	-4005
▁river	-4006
▁space	-4007
▁classe	-4008
▁décidé	-4009
▁proper	-4010
▁alright	-4011
▁appeler	-4012
▁spécial	-4013
▁wearing	-4014
▁anywhere	-4015
▁interested	-4016
reg	-4017
enne	-4018
ised	-4019
orme	-4020
ries	-4021
veux	-4022
▁lun	-4023
▁mum	-4024
otion	-4025
êcher	-4026
▁amaz	-4027
▁chou	-4028
▁crow	-4029
▁curt	-4030
▁enle	-4031
▁pont	-4032
▁pote	-4033
▁prep	-4034
▁brill	-4035
▁doyle	-4036
▁elect	-4037
▁exemp	-4038
▁lâche	-4039
▁marry	-4040
▁oncle	-4041
▁ordre	-4042
▁pièce	-4043
▁relig	-4044
▁récup	-4045
▁during	-4046
▁places	-4047
▁planet	-4048
▁recogn	-4049
▁forgive	-4050
▁goodbye	-4051
▁obvious	-4052
eil	-4053
how	-4054
▁gh	-4055
onné	-4056
▁broke	-4057
▁emmen	-4058
▁fatig	-4059
▁fault	-4060
▁jimmy	-4061
▁ligne	-4062
▁lived	-4063
▁lunch	-4064
▁screw	-4065
▁série	-4066
▁tenir	-4067
▁diable	-4068
▁disais	-4069
▁heaven	-4070
▁invest	-4071
▁voyons	-4072
▁arrêter	-4073
▁finally	-4074
▁promets	-4075
▁sitting	-4076
▁système	-4077
▁interesting	-4078
.'	-4079
ev	-4080
aug	-4081
mis	-4082
ulé	-4083
acus	-4084
irer	-4085
▁enn	-4086
▁fur	-4087
asion	-4088
ignon	-4089
wards	-4090
▁burn	-4091
▁rent	-4092
▁sauv	-4093
allais	-4094
▁agree	-4095
▁seuls	-4096
▁track	-4097
▁tyler	-4098
▁constr	-4099
▁devenu	-4100
▁savait	-4101
▁forever	-4102
▁mauvaise	-4103
▁surveill	-4104
▁spartacus	-4105
dem	-4106
old	-4107
édi	-4108
▁ka	-4109
▁ra	-4110
akes	-4111
icle	-4112
rier	-4113
▁nul	-4114
▁écl	-4115
armée	-4116
ities	-4117
▁joli	-4118
▁paid	-4119
▁pius	-4120
▁pray	-4121
▁tick	-4122
▁trad	-4123
ession	-4124
idence	-4125
▁books	-4126
▁buddy	-4127
▁tromp	-4128
▁disait	-4129
▁envoyé	-4130
▁mettez	-4131
▁portes	-4132
▁sortez	-4133
▁cigaret	-4134
▁magazine	-4135
▁connaître	-4136
!!	-4137
mond	-4138
▁lay	-4139
▁sig	-4140
▁tel	-4141
▁doin	-4142
▁lire	-4143
▁rain	-4144
▁brain	-4145
▁invol	-4146
▁ordin	-4147
ulation	-4148
▁bought	-4149
▁commit	-4150
▁forces	-4151
▁frères	-4152
▁needed	-4153
▁palest	-4154
▁avaient	-4155
▁courage	-4156
▁ecoutez	-4157
▁continuer	-4158
fu	-4159
wan	-4160
ills	-4161
mmer	-4162
▁jud	-4163
ucked	-4164
▁drug	-4165
▁fier	-4166
▁fred	-4167
▁goin	-4168
▁jeun	-4169
▁tape	-4170
▁tombe	-4171
initely	-4172
occuper	-4173
▁cadeau	-4174
▁nombre	-4175
▁représ	-4176
▁appreci	-4177
▁compagn	-4178
▁convers	-4179
▁environ	-4180
▁officer	-4181
▁brothers	-4182
▁immediately	-4183
ka	-4184
aly	-4185
con	-4186
nant	-4187
otty	-4188
▁ene	-4189
▁hid	-4190
reuse	-4191
rique	-4192
usion	-4193
▁amie	-4194
▁mecs	-4195
▁wine	-4196
▁boîte	-4197
▁serge	-4198
▁seven	-4199
▁balles	-4200
▁chacun	-4201
▁choisi	-4202
ablement	-4203
▁afterno	-4204
▁monster	-4205
▁private	-4206
▁réfléch	-4207
▁relations	-4208
oh	-4209
▁ny	-4210
"...	-4211
aded	-4212
amed	-4213
ctor	-4214
lier	-4215
oiré	-4216
▁bow	-4217
▁foi	-4218
ancer	-4219
pheus	-4220
renez	-4221
▁"...	-4222
▁busy	-4223
▁feed	-4224
▁enemy	-4225
▁fasse	-4226
▁paper	-4227
▁soeur	-4228
▁sorti	-4229
attends	-4230
▁concer	-4231
▁letter	-4232
▁minist	-4233
▁moitié	-4234
▁puisse	-4235
▁arrange	-4236
▁toucher	-4237
▁absolument	-4238
tu	-4239
itz	-4240
aker	-4241
ocat	-4242
once	-4243
ring	-4244
uler	-4245
▁dut	-4246
ators	-4247
avant	-4248
▁cash	-4249
▁guns	-4250
▁note	-4251
▁pant	-4252
▁wood	-4253
▁activ	-4254
▁doubt	-4255
▁drunk	-4256
▁gamin	-4257
▁knock	-4258
▁liked	-4259
▁moved	-4260
▁ought	-4261
▁venue	-4262
appeler	-4263
▁assist	-4264
▁chauss	-4265
▁ferait	-4266
▁hungry	-4267
▁problems	-4268
▁afternoon	-4269
▁meilleure	-4270
▁government	-4271
ety	-4272
mon	-4273
osé	-4274
tit	-4275
uff	-4276
▁py	-4277
▁brav	-4278
▁mett	-4279
ounded	-4280
▁autor	-4281
▁sympa	-4282
▁dennis	-4283
▁fucked	-4284
▁search	-4285
▁signif	-4286
▁jessica	-4287
▁kidnapp	-4288
▁sergent	-4289
▁dangereux	-4290
▁dangerous	-4291
your	-4292
éter	-4293
▁lew	-4294
▁rub	-4295
▁bite	-4296
▁chur	-4297
▁goût	-4298
▁réun	-4299
▁accep	-4300
▁fiche	-4301
▁guard	-4302
▁japon	-4303
▁outta	-4304
▁sword	-4305
▁erreur	-4306
▁health	-4307
▁monter	-4308
▁salaud	-4309
▁rencontré	-4310
▁tranquille	-4311
gs	-4312
eff	-4313
ope	-4314
ivez	-4315
onel	-4316
quet	-4317
rope	-4318
▁cens	-4319
▁holy	-4320
▁sake	-4321
▁sell	-4322
▁sert	-4323
indler	-4324
▁folle	-4325
▁prêts	-4326
▁quart	-4327
▁trave	-4328
▁author	-4329
▁dingue	-4330
▁forgot	-4331
▁grands	-4332
▁pourra	-4333
▁thinks	-4334
▁michael	-4335
▁prépare	-4336
▁survive	-4337
▁american	-4338
▁prochain	-4339
▁retourne	-4340
▁solution	-4341
▁standing	-4342
▁retourner	-4343
"!	-4344
ba	-4345
lf	-4346
set	-4347
▁gê	-4348
cape	-4349
oque	-4350
voir	-4351
▁age	-4352
▁cast	-4353
▁drag	-4354
▁exam	-4355
▁merc	-4356
▁neuf	-4357
▁push	-4358
▁roll	-4359
▁soup	-4360
▁tiré	-4361
▁zone	-4362
▁coups	-4363
▁jerry	-4364
▁rêves	-4365
▁signe	-4366
▁tough	-4367
▁terrif	-4368
▁descend	-4369
▁suicide	-4370
▁speaking	-4371
xy	-4372
ato	-4373
isf	-4374
kin	-4375
ode	-4376
inal	-4377
▁eve	-4378
▁hig	-4379
▁sud	-4380
▁ted	-4381
dding	-4382
▁espe	-4383
▁nick	-4384
▁tais	-4385
▁tang	-4386
ctions	-4387
▁carlo	-4388
▁chair	-4389
▁event	-4390
▁smoke	-4391
▁style	-4392
▁photos	-4393
▁volont	-4394
▁concent	-4395
▁planète	-4396
▁pouvons	-4397
▁consider	-4398
▁direction	-4399
▁schindler	-4400
▁difference	-4401
abb	-4402
lant	-4403
rang	-4404
▁coi	-4405
enter	-4406
▁area	-4407
▁chem	-4408
▁doig	-4409
▁pute	-4410
▁sean	-4411
itable	-4412
▁final	-4413
▁north	-4414
▁queen	-4415
▁selon	-4416
▁smart	-4417
ception	-4418
▁ordres	-4419
▁weapon	-4420
▁revenir	-4421
▁innocent	-4422
▁particul	-4423
▁certainly	-4424
▁descendre	-4425
amb	-4426
dit	-4427
née	-4428
atif	-4429
idée	-4430
tern	-4431
▁equ	-4432
▁jap	-4433
▁néc	-4434
▁ral	-4435
.....	-4436
vered	-4437
▁qual	-4438
▁size	-4439
▁brave	-4440
▁kelly	-4441
▁local	-4442
▁ofthe	-4443
▁scout	-4444
▁taste	-4445
▁church	-4446
▁groupe	-4447
▁quitté	-4448
▁central	-4449
▁fenêtre	-4450
▁forward	-4451
▁totally	-4452
▁restaurant	-4453
olo	-4454
île	-4455
▁ari	-4456
▁bod	-4457
ample	-4458
aurai	-4459
issez	-4460
▁arab	-4461
donald	-4462
iments	-4463
ration	-4464
▁bande	-4465
▁crass	-4466
▁lying	-4467
▁dreams	-4468
▁orders	-4469
▁pleine	-4470
▁scream	-4471
▁neither	-4472
▁girlfriend	-4473
ga	-4474
ilt	-4475
met	-4476
tle	-4477
urb	-4478
▁ep	-4479
arme	-4480
orer	-4481
wise	-4482
▁jen	-4483
▁jés	-4484
▁mos	-4485
aisse	-4486
ordin	-4487
ouvre	-4488
▁bran	-4489
▁curi	-4490
▁enne	-4491
▁huit	-4492
▁jake	-4493
▁nemo	-4494
▁péri	-4495
▁reçu	-4496
▁sept	-4497
aurait	-4498
cially	-4499
▁bravo	-4500
▁bruce	-4501
▁calls	-4502
▁cerve	-4503
▁jolie	-4504
▁ocean	-4505
▁reine	-4506
▁stuck	-4507
▁third	-4508
▁voler	-4509
▁immédi	-4510
▁arrived	-4511
▁besides	-4512
▁médecin	-4513
▁mcdonald	-4514
▁definitely	-4515
▁professeur	-4516
ata	-4517
cel	-4518
ora	-4519
irai	-4520
ript	-4521
uits	-4522
▁bén	-4523
▁fit	-4524
ishop	-4525
▁crew	-4526
▁effe	-4527
▁faux	-4528
▁grab	-4529
▁rire	-4530
▁tree	-4531
urance	-4532
▁meurt	-4533
▁serez	-4534
▁tenez	-4535
▁elliot	-4536
▁remain	-4537
▁soirée	-4538
▁walter	-4539
▁pokémon	-4540
▁walking	-4541
▁conduire	-4542
▁malheure	-4543
▁morpheus	-4544
▁motherfucker	-4545
boy	-4546
non	-4547
pin	-4548
▁ià	-4549
affe	-4550
plic	-4551
that	-4552
▁rée	-4553
gundy	-4554
▁joke	-4555
▁nine	-4556
▁skin	-4557
ensive	-4558
▁année	-4559
▁casse	-4560
▁danse	-4561
▁heavy	-4562
▁plane	-4563
▁prove	-4564
▁teddy	-4565
▁tombé	-4566
▁apolog	-4567
▁french	-4568
▁instru	-4569
▁cheveux	-4570
▁devriez	-4571
▁disappe	-4572
▁terminé	-4573
▁vieille	-4574
▁écoutez	-4575
▁burgundy	-4576
▁deuxième	-4577
▁protéger	-4578
▁doucement	-4579
▁magnifique	-4580
da	-4581
mpt	-4582
oto	-4583
ran	-4584
▁pé	-4585
▁ut	-4586
illé	-4587
ompl	-4588
▁hat	-4589
▁sky	-4590
▁var	-4591
inson	-4592
▁aimé	-4593
▁chim	-4594
▁gods	-4595
▁midi	-4596
▁mord	-4597
▁sout	-4598
▁stif	-4599
iction	-4600
▁brook	-4601
▁chier	-4602
▁refus	-4603
▁venus	-4604
▁ground	-4605
▁necess	-4606
▁rapide	-4607
▁talked	-4608
▁exemple	-4609
▁identif	-4610
▁importe	-4611
▁liberté	-4612
▁stopped	-4613
▁worried	-4614
▁secondes	-4615
▁violence	-4616
erie	-4617
ieux	-4618
élic	-4619
▁cél	-4620
▁mic	-4621
▁pén	-4622
▁âme	-4623
abeth	-4624
essay	-4625
▁-...	-4626
▁host	-4627
▁keys	-4628
▁rejo	-4629
▁self	-4630
▁suck	-4631
▁large	-4632
▁named	-4633
▁share	-4634
▁bloody	-4635
▁escape	-4636
▁humain	-4637
▁lights	-4638
▁paraît	-4639
▁presse	-4640
▁satisf	-4641
▁suivre	-4642
▁équipe	-4643
▁manager	-4644
▁seconds	-4645
▁répondre	-4646
▁especially	-4647
but	-4648
ips	-4649
mit	-4650
bres	-4651
erde	-4652
fast	-4653
▁key	-4654
▁méd	-4655
raper	-4656
▁croi	-4657
▁dise	-4658
▁east	-4659
▁etes	-4660
▁flow	-4661
▁inde	-4662
▁joué	-4663
▁neck	-4664
▁orig	-4665
▁spot	-4666
▁brown	-4667
▁dirty	-4668
▁finch	-4669
▁poser	-4670
▁réuss	-4671
▁sache	-4672
▁tueur	-4673
▁casino	-4674
▁esprit	-4675
▁tennis	-4676
▁victim	-4677
▁crassus	-4678
▁cuisine	-4679
▁dérange	-4680
▁passion	-4681
▁poisson	-4682
▁realize	-4683
▁réponse	-4684
▁secours	-4685
▁washing	-4686
▁computer	-4687
▁réveille	-4688
acé	-4689
cte	-4690
ubl	-4691
und	-4692
▁én	-4693
cked	-4694
imum	-4695
lise	-4696
▁gui	-4697
▁nez	-4698
▁riv	-4699
fully	-4700
▁ruth	-4701
▁surf	-4702
▁marie	-4703
▁nancy	-4704
▁rules	-4705
▁smith	-4706
ucation	-4707
▁appart	-4708
▁bonnes	-4709
▁dégage	-4710
▁robert	-4711
▁tenoch	-4712
▁chanter	-4713
▁préfère	-4714
▁commande	-4715
▁national	-4716
impression	-4717
▁comprenez	-4718
▁ressemble	-4719
▁permission	-4720
œu	-4721
ero	-4722
ini	-4723
rus	-4724
work	-4725
▁lic	-4726
▁liv	-4727
▁mém	-4728
▁wow	-4729
outes	-4730
rions	-4731
▁anne	-4732
▁dete	-4733
▁grat	-4734
▁mlle	-4735
▁repe	-4736
esprit	-4737
ôpital	-4738
▁croit	-4739
▁danny	-4740
▁dieux	-4741
▁offer	-4742
▁oscar	-4743
▁polly	-4744
▁shoes	-4745
arriver	-4746
olution	-4747
▁france	-4748
▁invent	-4749
▁livres	-4750
▁memory	-4751
▁myster	-4752
▁ouvrez	-4753
▁parole	-4754
▁sauter	-4755
▁english	-4756
▁partner	-4757
▁quickly	-4758
▁terrain	-4759
▁wedding	-4760
▁convainc	-4761
▁impression	-4762
acy	-4763
exc	-4764
rop	-4765
ême	-4766
chée	-4767
ffer	-4768
ined	-4769
▁enl	-4770
▁lut	-4771
ament	-4772
arent	-4773
erson	-4774
▁hous	-4775
▁indi	-4776
▁quar	-4777
▁rare	-4778
▁snow	-4779
▁virg	-4780
▁volé	-4781
▁assis	-4782
▁bunch	-4783
▁divor	-4784
▁murph	-4785
▁natur	-4786
▁reach	-4787
▁sauvé	-4788
▁stone	-4789
▁study	-4790
▁tient	-4791
▁wrote	-4792
▁devais	-4793
▁eating	-4794
▁majest	-4795
▁martin	-4796
▁remerc	-4797
▁sentir	-4798
▁talent	-4799
▁anglais	-4800
▁choisir	-4801
▁coucher	-4802
▁douleur	-4803
▁certaine	-4804
bie	-4805
exp	-4806
èle	-4807
onom	-4808
orté	-4809
rime	-4810
▁bât	-4811
▁hmm	-4812
aître	-4813
▁chan	-4814
▁dred	-4815
▁hund	-4816
▁mama	-4817
▁trom	-4818
pected	-4819
▁bobby	-4820
▁jésus	-4821
▁poste	-4822
▁truck	-4823
▁types	-4824
▁aurais	-4825
▁cousin	-4826
▁chanson	-4827
▁colonel	-4828
▁déteste	-4829
▁faisons	-4830
▁trouvez	-4831
▁sergeant	-4832
▁appreciate	-4833
cs	-4834
va	-4835
els	-4836
enn	-4837
eze	-4838
ker	-4839
ops	-4840
acer	-4841
cent	-4842
ened	-4843
gest	-4844
illy	-4845
ires	-4846
▁dyn	-4847
▁fif	-4848
▁lat	-4849
▁log	-4850
▁nig	-4851
▁âge	-4852
▁dare	-4853
▁fail	-4854
▁myst	-4855
▁robe	-4856
▁trib	-4857
▁climb	-4858
▁compt	-4859
▁loves	-4860
▁nulle	-4861
▁parie	-4862
▁spent	-4863
instant	-4864
▁nécess	-4865
▁partez	-4866
▁powers	-4867
▁refuse	-4868
▁arrière	-4869
▁stories	-4870
▁trouves	-4871
▁descends	-4872
▁décision	-4873
▁détruire	-4874
▁conversation	-4875
ena	-4876
oue	-4877
bert	-4878
read	-4879
rodu	-4880
▁tex	-4881
aimes	-4882
esses	-4883
night	-4884
▁bain	-4885
▁bête	-4886
▁paie	-4887
▁dredd	-4888
▁jones	-4889
▁laque	-4890
▁liste	-4891
▁sammy	-4892
▁storm	-4893
▁cochon	-4894
▁dépend	-4895
▁lovely	-4896
▁states	-4897
habitude	-4898
▁address	-4899
▁attaque	-4900
▁fonction	-4901
▁robinson	-4902
ape	-4903
▁lè	-4904
atic	-4905
came	-4906
▁owe	-4907
ached	-4908
apons	-4909
▁bear	-4910
▁disg	-4911
▁drew	-4912
▁dumb	-4913
▁escl	-4914
▁extr	-4915
▁flat	-4916
▁hole	-4917
▁phys	-4918
▁dynam	-4919
▁rends	-4920
▁roman	-4921
▁teach	-4922
▁avions	-4923
▁blague	-4924
▁bridge	-4925
▁employ	-4926
▁flying	-4927
▁partis	-4928
ications	-4929
▁flingue	-4930
▁further	-4931
▁whether	-4932
▁greatest	-4933
▁viennent	-4934
▁breakfast	-4935
**	-4936
apt	-4937
inct	-4938
▁amy	-4939
▁aud	-4940
achel	-4941
cious	-4942
oncer	-4943
▁copy	-4944
▁crap	-4945
▁jeff	-4946
▁risk	-4947
▁span	-4948
occupe	-4949
▁board	-4950
▁brief	-4951
▁dirai	-4952
▁doors	-4953
▁guest	-4954
▁lance	-4955
▁plate	-4956
▁saint	-4957
▁shirt	-4958
▁store	-4959
▁trade	-4960
▁arrest	-4961
▁bottom	-4962
▁centre	-4963
▁leader	-4964
▁mètres	-4965
▁picked	-4966
▁unique	-4967
▁united	-4968
▁amazing	-4969
▁discuss	-4970
▁hundred	-4971
▁vacances	-4972
▁immédiate	-4973
ax	-4974
ser	-4975
▁io	-4976
▁ji	-4977
ippe	-4978
ouer	-4979
peau	-4980
sier	-4981
érêt	-4982
▁bud	-4983
▁cos	-4984
▁hen	-4985
▁lan	-4986
▁ner	-4987
dames	-4988
riage	-4989
▁carp	-4990
▁cult	-4991
▁mise	-4992
▁nett	-4993
▁ryan	-4994
▁tres	-4995
▁warm	-4996
▁weak	-4997
▁attic	-4998
▁effet	-4999
▁freed	-5000
▁often	-5001
▁plant	-5002
▁spoon	-5003
▁terry	-5004
▁virus	-5005
▁battle	-5006
▁dirige	-5007
▁entraî	-5008
▁jeunes	-5009
▁rappel	-5010
▁savent	-5011
▁threat	-5012
▁étions	-5013
▁monstre	-5014
▁bathroom	-5015
▁palestine	-5016
can	-5017
inv	-5018
umb	-5019
vée	-5020
▁aj	-5021
iece	-5022
isée	-5023
mand	-5024
▁hub	-5025
▁imb	-5026
▁net	-5027
▁dépl	-5028
▁gate	-5029
▁gift	-5030
▁grac	-5031
▁lots	-5032
▁maud	-5033
▁nive	-5034
▁ours	-5035
▁payé	-5036
▁purp	-5037
▁trah	-5038
▁wild	-5039
ommage	-5040
▁broad	-5041
▁fired	-5042
▁foutu	-5043
▁prise	-5044
▁prête	-5045
▁twice	-5046
▁nicola	-5047
▁quitte	-5048
▁putting	-5049
▁staying	-5050
▁superbe	-5051
▁weapons	-5052
iversaire	-5053
▁laquelle	-5054
▁pourriez	-5055
▁présente	-5056
▁compagnie	-5057
▁ourselves	-5058
char	-5059
heur	-5060
hood	-5061
lley	-5062
redi	-5063
rupt	-5064
time	-5065
èrent	-5066
▁fill	-5067
▁impl	-5068
▁lomb	-5069
▁mien	-5070
▁pear	-5071
▁block	-5072
▁cassé	-5073
▁gener	-5074
▁laugh	-5075
▁mille	-5076
▁pitié	-5077
▁prévu	-5078
▁range	-5079
▁rappe	-5080
▁règle	-5081
▁scène	-5082
▁vegas	-5083
▁arrêté	-5084
▁assure	-5085
▁avocat	-5086
▁blessé	-5087
▁copain	-5088
▁corpor	-5089
▁embarr	-5090
▁killer	-5091
▁recomm	-5092
▁summer	-5093
▁target	-5094
▁fantast	-5095
▁retrouv	-5096
▁réalité	-5097
▁françois	-5098
▁retrouve	-5099
▁upstairs	-5100
▁apprendre	-5101
▁beginning	-5102
▁continuez	-5103
▁professor	-5104
hol	-5105
aign	-5106
assé	-5107
ison	-5108
mary	-5109
sses	-5110
▁cla	-5111
▁gaz	-5112
▁tig	-5113
apper	-5114
ement	-5115
hôtel	-5116
▁crit	-5117
▁upon	-5118
▁vête	-5119
étique	-5120
▁aille	-5121
▁devil	-5122
▁level	-5123
▁stock	-5124
▁tight	-5125
▁total	-5126
▁associ	-5127
▁closer	-5128
▁contrô	-5129
▁kitchen	-5130
▁miracle	-5131
▁raconte	-5132
▁amoureux	-5133
▁mesdames	-5134
▁pardonne	-5135
▁otherwise	-5136
▁inspecteur	-5137
esc	-5138
ito	-5139
kis	-5140
ram	-5141
▁km	-5142
alie	-5143
this	-5144
▁pis	-5145
▁ras	-5146
▁tun	-5147
▁équ	-5148
acked	-5149
otten	-5150
verse	-5151
▁cach	-5152
▁cust	-5153
▁dame	-5154
▁ghet	-5155
▁kaya	-5156
▁luis	-5157
▁mand	-5158
▁pure	-5159
cience	-5160
ranger	-5161
▁armée	-5162
▁began	-5163
▁beauté	-5164
▁became	-5165
▁betray	-5166
▁bishop	-5167
▁crying	-5168
▁départ	-5169
▁entend	-5170
▁maghan	-5171
▁défense	-5172
▁stifler	-5173
▁lombardo	-5174
▁marriage	-5175
▁programme	-5176
▁everywhere	-5177
▁protection	-5178
▁simplement	-5179
▁probablement	-5180
agu	-5181
ech	-5182
sse	-5183
honn	-5184
over	-5185
reur	-5186
util	-5187
view	-5188
ôtre	-5189
▁fry	-5190
▁meu	-5191
▁tap	-5192
▁wis	-5193
edict	-5194
ended	-5195
sique	-5196
▁cave	-5197
▁dure	-5198
▁emer	-5199
▁jean	-5200
▁soin	-5201
▁aveug	-5202
▁beach	-5203
▁disco	-5204
▁lenny	-5205
▁bigger	-5206
▁bodies	-5207
▁chante	-5208
▁chocol	-5209
▁poison	-5210
▁accompl	-5211
▁deliver	-5212
▁enfoiré	-5213
▁honneur	-5214
▁paradis	-5215
▁patrick	-5216
▁prisonn	-5217
▁ridicul	-5218
▁russian	-5219
▁usually	-5220
▁vouloir	-5221
▁benedict	-5222
▁birthday	-5223
▁pourtant	-5224
▁champagne	-5225
▁listening	-5226
▁personnel	-5227
▁chaussures	-5228
bon	-5229
hen	-5230
irez	-5231
velo	-5232
▁pit	-5233
illon	-5234
upart	-5235
▁barb	-5236
▁beer	-5237
▁brad	-5238
▁jose	-5239
▁mart	-5240
▁pist	-5241
▁rita	-5242
▁susp	-5243
▁étud	-5244
▁admit	-5245
▁lewis	-5246
▁mêmes	-5247
▁piano	-5248
▁plait	-5249
▁resse	-5250
▁trick	-5251
▁élect	-5252
ization	-5253
▁amanda	-5254
▁avance	-5255
▁formid	-5256
▁ghetto	-5257
▁lawyer	-5258
▁missed	-5259
▁morgan	-5260
▁taille	-5261
▁taught	-5262
▁arrivée	-5263
▁devient	-5264
▁fortune	-5265
▁reading	-5266
▁services	-5267
▁spectacle	-5268
fa	-5269
ery	-5270
inf	-5271
▁'?	-5272
ader	-5273
alem	-5274
omas	-5275
▁bay	-5276
▁iis	-5277
▁maî	-5278
▁piz	-5279
rière	-5280
utile	-5281
▁brid	-5282
▁cand	-5283
▁dort	-5284
▁lake	-5285
▁lisa	-5286
▁race	-5287
▁seat	-5288
▁tank	-5289
▁taxi	-5290
▁ways	-5291
fortun	-5292
issent	-5293
▁bière	-5294
▁caval	-5295
▁chris	-5296
▁honte	-5297
▁inqui	-5298
▁japan	-5299
▁likes	-5300
▁marsh	-5301
▁neigh	-5302
▁santé	-5303
illeurs	-5304
▁berlin	-5305
▁camion	-5306
▁remind	-5307
▁visite	-5308
aissance	-5309
▁correct	-5310
▁council	-5311
▁dommage	-5312
▁enchant	-5313
▁faisais	-5314
▁project	-5315
▁revient	-5316
▁réponds	-5317
▁support	-5318
▁washington	-5319
ik	-5320
rog	-5321
▁mun	-5322
▁raf	-5323
acter	-5324
ology	-5325
onica	-5326
▁arth	-5327
▁chev	-5328
▁kong	-5329
▁renv	-5330
usalem	-5331
▁ghost	-5332
▁mommy	-5333
▁price	-5334
▁servi	-5335
▁appare	-5336
▁cacher	-5337
▁cherch	-5338
▁marque	-5339
▁nothin	-5340
▁object	-5341
▁scient	-5342
▁angeles	-5343
▁comfort	-5344
▁freedom	-5345
▁meurtre	-5346
▁plupart	-5347
▁profond	-5348
▁étrange	-5349
▁directeur	-5350
▁conscience	-5351
▁intéressant	-5352
.?	-5353
arm	-5354
cul	-5355
ela	-5356
gth	-5357
hey	-5358
zie	-5359
ceed	-5360
dney	-5361
itty	-5362
ktra	-5363
ners	-5364
resh	-5365
ètes	-5366
▁fis	-5367
▁iss	-5368
▁lin	-5369
ified	-5370
▁clay	-5371
▁dave	-5372
▁embr	-5373
▁lève	-5374
▁plat	-5375
▁above	-5376
▁balls	-5377
▁brand	-5378
▁faill	-5379
▁feels	-5380
▁félic	-5381
▁kevin	-5382
▁ouver	-5383
hôpital	-5384
▁austin	-5385
▁barley	-5386
▁destru	-5387
▁insane	-5388
▁triste	-5389
veilleux	-5390
▁conduis	-5391
▁ramener	-5392
▁witness	-5393
▁philippe	-5394
▁unfortun	-5395
▁merveilleux	-5396
▁gouvernement	-5397
bs	-5398
ppy	-5399
▁gy	-5400
cile	-5401
▁jac	-5402
▁mew	-5403
▁rif	-5404
▁rod	-5405
heart	-5406
▁mary	-5407
▁nuts	-5408
▁rule	-5409
▁cabin	-5410
▁dents	-5411
▁glace	-5412
▁grant	-5413
▁pours	-5414
▁ships	-5415
▁speed	-5416
▁sport	-5417
affaire	-5418
▁commer	-5419
▁débarr	-5420
▁lequel	-5421
▁oublie	-5422
▁thomas	-5423
▁account	-5424
▁driving	-5425
▁purpose	-5426
▁faudrait	-5427
▁heureuse	-5428
▁involved	-5429
▁sleeping	-5430
▁vêtements	-5431
▁immédiatement	-5432
jam	-5433
ieds	-5434
leep	-5435
oter	-5436
▁bak	-5437
▁sén	-5438
▁tie	-5439
dence	-5440
ender	-5441
uelle	-5442
▁affe	-5443
▁bell	-5444
▁clos	-5445
▁cook	-5446
▁pete	-5447
▁ravi	-5448
▁sara	-5449
ension	-5450
ingues	-5451
▁anton	-5452
▁gives	-5453
▁marié	-5454
▁polic	-5455
▁santa	-5456
▁tourn	-5457
▁trace	-5458
▁verra	-5459
ational	-5460
▁indust	-5461
▁restes	-5462
▁suivez	-5463
▁weight	-5464
entendre	-5465
▁cerveau	-5466
▁concern	-5467
▁petites	-5468
▁science	-5469
▁student	-5470
▁comprend	-5471
▁investig	-5472
▁remercie	-5473
▁suddenly	-5474
▁toilettes	-5475
▁themselves	-5476
▁relationship	-5477
lv	-5478
aka	-5479
cée	-5480
kyo	-5481
lée	-5482
orp	-5483
cles	-5484
with	-5485
âche	-5486
èque	-5487
▁jér	-5488
▁neo	-5489
essed	-5490
rends	-5491
▁crét	-5492
▁cute	-5493
▁liqu	-5494
▁stat	-5495
▁trin	-5496
iennes	-5497
équipe	-5498
▁angry	-5499
▁coupe	-5500
▁empty	-5501
▁films	-5502
▁gagne	-5503
▁juifs	-5504
▁nerve	-5505
▁tokyo	-5506
oiselle	-5507
▁lettre	-5508
▁pirate	-5509
▁propri	-5510
▁repres	-5511
▁starts	-5512
▁touché	-5513
▁contrat	-5514
▁costume	-5515
▁couvert	-5516
▁moindre	-5517
▁ailleurs	-5518
▁distance	-5519
▁pictures	-5520
▁signifie	-5521
▁apartment	-5522
▁inspector	-5523
sc	-5524
dom	-5525
ûte	-5526
aged	-5527
mont	-5528
▁bey	-5529
▁jun	-5530
ained	-5531
ander	-5532
mbers	-5533
ocked	-5534
▁ador	-5535
▁arms	-5536
▁brig	-5537
▁fich	-5538
▁fist	-5539
▁hadn	-5540
▁prec	-5541
regist	-5542
▁cents	-5543
▁jambe	-5544
▁julio	-5545
▁langu	-5546
▁marty	-5547
▁names	-5548
▁princ	-5549
▁steak	-5550
imagine	-5551
univers	-5552
▁closed	-5553
▁copine	-5554
▁decide	-5555
▁depart	-5556
▁europe	-5557
▁passed	-5558
▁prefer	-5559
▁ramène	-5560
▁revenu	-5561
▁règles	-5562
▁acheter	-5563
▁continu	-5564
▁holding	-5565
▁oublier	-5566
▁request	-5567
▁spanish	-5568
▁assassin	-5569
▁brochant	-5570
▁brooklyn	-5571
▁decision	-5572
▁regrette	-5573
▁veronica	-5574
▁destroyed	-5575
▁sacrifice	-5576
▁wondering	-5577
▁formidable	-5578
abl	-5579
kar	-5580
ror	-5581
œil	-5582
▁kr	-5583
▁ku	-5584
▁wi	-5585
ract	-5586
éner	-5587
▁clé	-5588
▁jay	-5589
▁tsu	-5590
cture	-5591
itten	-5592
▁bang	-5593
▁bare	-5594
▁cock	-5595
▁loup	-5596
▁mere	-5597
▁nage	-5598
▁thir	-5599
ulance	-5600
▁among	-5601
▁image	-5602
▁magic	-5603
▁neige	-5604
▁pearl	-5605
▁respe	-5606
▁sacré	-5607
▁stole	-5608
fection	-5609
▁arthur	-5610
▁asleep	-5611
▁danser	-5612
▁driver	-5613
▁gosses	-5614
▁hélène	-5615
▁milieu	-5616
▁occupe	-5617
▁repeat	-5618
▁vendre	-5619
▁atticus	-5620
▁british	-5621
▁created	-5622
▁elektra	-5623
▁moments	-5624
▁présenter	-5625
▁responsable	-5626
po	-5627
tte	-5628
▁pâ	-5629
alon	-5630
berg	-5631
osse	-5632
▁tau	-5633
▁tea	-5634
enfer	-5635
ortun	-5636
▁cath	-5637
▁chin	-5638
▁donn	-5639
▁incl	-5640
▁marg	-5641
▁nerv	-5642
▁pock	-5643
▁ratt	-5644
▁sexy	-5645
▁soft	-5646
▁trés	-5647
ustral	-5648
▁adieu	-5649
▁andré	-5650
▁blair	-5651
▁cloud	-5652
▁désir	-5653
▁fusil	-5654
▁gorge	-5655
▁pants	-5656
▁rendu	-5657
▁royal	-5658
▁russe	-5659
▁scene	-5660
▁sight	-5661
▁titan	-5662
abilité	-5663
oublier	-5664
▁bougez	-5665
▁button	-5666
▁failli	-5667
▁german	-5668
▁langue	-5669
▁niveau	-5670
▁plenty	-5671
▁sydney	-5672
▁temple	-5673
▁apporte	-5674
▁clients	-5675
▁example	-5676
▁mémoire	-5677
▁princip	-5678
▁soldats	-5679
▁stupide	-5680
▁writing	-5681
▁powerful	-5682
▁recherche	-5683
▁recognize	-5684
las	-5685
pas	-5686
rid	-5687
ède	-5688
▁gé	-5689
onie	-5690
orie	-5691
ulez	-5692
wers	-5693
▁ate	-5694
▁aug	-5695
▁cup	-5696
▁euh	-5697
▁fed	-5698
▁fid	-5699
▁gon	-5700
▁ric	-5701
excus	-5702
rente	-5703
▁dent	-5704
▁dors	-5705
▁dési	-5706
▁gree	-5707
▁murd	-5708
▁sail	-5709
▁sher	-5710
▁vert	-5711
éresse	-5712
▁emerg	-5713
▁forcé	-5714
▁james	-5715
▁katie	-5716
▁sembl	-5717
▁stren	-5718
▁using	-5719
izabeth	-5720
▁beyond	-5721
▁connor	-5722
▁desert	-5723
▁dirais	-5724
▁envoie	-5725
▁explos	-5726
▁flight	-5727
▁locked	-5728
▁navire	-5729
▁rachel	-5730
▁biggest	-5731
▁intérêt	-5732
▁nervous	-5733
▁propose	-5734
▁approche	-5735
▁contente	-5736
▁convince	-5737
▁laughing	-5738
▁raconter	-5739
▁starting	-5740
▁histoires	-5741
▁politique	-5742
▁sweetheart	-5743
ifs	-5744
lds	-5745
mos	-5746
udi	-5747
ugg	-5748
▁om	-5749
mbre	-5750
▁bid	-5751
▁fbi	-5752
▁pom	-5753
allez	-5754
ieurs	-5755
igned	-5756
naire	-5757
nelle	-5758
velop	-5759
▁appl	-5760
▁dogs	-5761
▁harm	-5762
▁moon	-5763
▁sonn	-5764
aching	-5765
import	-5766
écoute	-5767
▁baron	-5768
▁brian	-5769
▁extre	-5770
▁folks	-5771
▁fresh	-5772
▁heads	-5773
▁jeter	-5774
▁meurs	-5775
▁offre	-5776
▁perds	-5777
▁quaid	-5778
▁suzie	-5779
▁upset	-5780
▁warri	-5781
▁whose	-5782
▁worst	-5783
ibility	-5784
▁bouger	-5785
▁cartes	-5786
▁coffre	-5787
▁defend	-5788
▁london	-5789
▁lâchez	-5790
▁répète	-5791
▁vision	-5792
▁walked	-5793
▁fantôme	-5794
▁inutile	-5795
▁missing	-5796
▁méchant	-5797
▁receive	-5798
▁contract	-5799
▁promised	-5800
▁shooting	-5801
▁boyfriend	-5802
▁contraire	-5803
▁interview	-5804
▁obviously	-5805
▁nécessaire	-5806
iée	-5807
obe	-5808
uté	-5809
▁ax	-5810
ancé	-5811
ased	-5812
imet	-5813
▁bol	-5814
▁kle	-5815
▁mcc	-5816
▁mit	-5817
▁rip	-5818
alité	-5819
quent	-5820
▁aven	-5821
▁cars	-5822
▁duty	-5823
▁shin	-5824
▁vécu	-5825
▁whoa	-5826
▁zero	-5827
▁adore	-5828
▁candy	-5829
▁matte	-5830
▁rentr	-5831
▁viend	-5832
étaient	-5833
▁couper	-5834
▁effect	-5835
▁ignore	-5836
▁itself	-5837
▁murphy	-5838
▁savons	-5839
▁twenty	-5840
▁écrire	-5841
moiselle	-5842
▁chances	-5843
▁charley	-5844
▁humains	-5845
▁princes	-5846
▁société	-5847
▁teacher	-5848
▁windows	-5849
▁dynamite	-5850
▁religion	-5851
▁williams	-5852
▁elizabeth	-5853
▁necessary	-5854
▁plusieurs	-5855
rad	-5856
uts	-5857
▁',	-5858
rate	-5859
xter	-5860
▁rév	-5861
▁tan	-5862
▁́il	-5863
imoto	-5864
▁cele	-5865
▁jiji	-5866
▁vamp	-5867
▁view	-5868
icated	-5869
oublie	-5870
rocher	-5871
▁allum	-5872
▁autom	-5873
▁avion	-5874
▁barre	-5875
▁chiff	-5876
▁forte	-5877
▁gaffe	-5878
▁raise	-5879
▁remer	-5880
▁retur	-5881
▁waste	-5882
▁baxter	-5883
▁chasse	-5884
▁gotten	-5885
▁mienne	-5886
▁offici	-5887
▁permis	-5888
▁player	-5889
▁sharks	-5890
▁allowed	-5891
▁honnête	-5892
▁viendra	-5893
▁practice	-5894
▁ridicule	-5895
▁souhaite	-5896
▁training	-5897
▁emergency	-5898
▁photograph	-5899
▁ridiculous	-5900
abe	-5901
rey	-5902
rin	-5903
▁zu	-5904
embr	-5905
ific	-5906
iral	-5907
like	-5908
quis	-5909
reen	-5910
suis	-5911
ènes	-5912
éder	-5913
▁boo	-5914
▁cot	-5915
▁ext	-5916
▁lif	-5917
▁pel	-5918
avion	-5919
ledge	-5920
omach	-5921
▁bask	-5922
▁burt	-5923
▁clés	-5924
▁dump	-5925
▁grav	-5926
▁guil	-5927
▁sain	-5928
▁sque	-5929
▁vidé	-5930
espace	-5931
▁glass	-5932
▁impro	-5933
▁malad	-5934
▁marla	-5935
▁parmi	-5936
▁slave	-5937
▁telle	-5938
jection	-5939
▁batman	-5940
▁bullet	-5941
▁corner	-5942
▁crucif	-5943
▁invité	-5944
▁source	-5945
▁balance	-5946
▁however	-5947
▁londres	-5948
▁meaning	-5949
▁pirates	-5950
▁ressent	-5951
▁surface	-5952
▁arrivent	-5953
▁présence	-5954
▁veuillez	-5955
▁sentiment	-5956
ya	-5957
hit	-5958
irm	-5959
olf	-5960
▁cu	-5961
▁ug	-5962
oeil	-5963
phon	-5964
vies	-5965
énom	-5966
▁gay	-5967
▁gue	-5968
▁jem	-5969
▁mén	-5970
▁vus	-5971
▁éle	-5972
onstr	-5973
rakis	-5974
tered	-5975
▁bleu	-5976
▁fing	-5977
▁nose	-5978
▁parc	-5979
▁pros	-5980
▁semb	-5981
entend	-5982
itesse	-5983
▁holly	-5984
▁mangé	-5985
emmerde	-5986
▁beauty	-5987
▁edward	-5988
▁gardes	-5989
▁hector	-5990
▁incred	-5991
▁mexico	-5992
▁papers	-5993
▁preuve	-5994
▁sandra	-5995
▁stones	-5996
▁transm	-5997
▁transp	-5998
attendre	-5999
▁asseyez	-6000
▁quelles	-6001
▁reconna	-6002
▁retrait	-6003
▁streets	-6004
▁believed	-6005
▁empêcher	-6006
▁princess	-6007
▁puissant	-6008
▁princesse	-6009
▁mademoiselle	-6010
réc	-6011
ses	-6012
édé	-6013
etch	-6014
rage	-6015
èces	-6016
▁dév	-6017
▁egg	-6018
▁fal	-6019
▁hyp	-6020
▁loy	-6021
▁uns	-6022
▁́ve	-6023
gging	-6024
stone	-6025
wanie	-6026
écile	-6027
▁amus	-6028
▁bapt	-6029
▁coke	-6030
▁gran	-6031
▁huge	-6032
▁jail	-6033
▁lour	-6034
▁mosc	-6035
▁mout	-6036
▁prog	-6037
▁rate	-6038
▁shad	-6039
aimais	-6040
ologie	-6041
étaire	-6042
▁beaux	-6043
▁crack	-6044
▁gosse	-6045
▁keeps	-6046
▁lines	-6047
▁mikey	-6048
▁truly	-6049
▁walls	-6050
▁doigts	-6051
▁débrou	-6052
▁evelyn	-6053
▁expéri	-6054
▁faster	-6055
▁fellow	-6056
▁joseph	-6057
▁massac	-6058
▁movies	-6059
▁potent	-6060
▁prépar	-6061
▁simply	-6062
▁souven	-6063
▁assieds	-6064
▁desmond	-6065
▁dessous	-6066
▁dossier	-6067
▁détruit	-6068
▁extreme	-6069
▁figured	-6070
▁learned	-6071
▁nations	-6072
▁percent	-6073
▁prepare	-6074
▁section	-6075
▁success	-6076
▁univers	-6077
▁zuwanie	-6078
▁allemand	-6079
▁language	-6080
▁quartier	-6081
▁continues	-6082
▁detective	-6083
▁découvert	-6084
▁following	-6085
▁rencontre	-6086
▁surveille	-6087
▁différence	-6088
▁experience	-6089
zen	-6090
▁od	-6091
▁ri	-6092
akin	-6093
alys	-6094
ault	-6095
ceau	-6096
cker	-6097
line	-6098
▁deg	-6099
▁pam	-6100
▁reb	-6101
cieux	-6102
ville	-6103
▁alco	-6104
▁chic	-6105
▁crai	-6106
▁desk	-6107
▁ends	-6108
▁hunt	-6109
▁lies	-6110
▁load	-6111
▁pink	-6112
▁reve	-6113
▁sexe	-6114
▁thro	-6115
▁ving	-6116
▁évac	-6117
avenir	-6118
▁allen	-6119
▁awful	-6120
▁klein	-6121
▁panne	-6122
▁repas	-6123
▁sauve	-6124
▁stage	-6125
honneur	-6126
▁appear	-6127
▁cancer	-6128
▁colère	-6129
▁common	-6130
▁enlève	-6131
▁longue	-6132
▁mignon	-6133
▁mérite	-6134
▁played	-6135
▁scotty	-6136
▁seemed	-6137
▁shower	-6138
▁whisky	-6139
itations	-6140
▁concert	-6141
▁crimine	-6142
▁develop	-6143
▁humaine	-6144
▁prouver	-6145
▁torture	-6146
▁vitesse	-6147
▁william	-6148
▁feelings	-6149
▁strength	-6150
▁certaines	-6151
▁plaisante	-6152
dam	-6153
ula	-6154
avis	-6155
ayer	-6156
cter	-6157
outs	-6158
▁duc	-6159
▁dun	-6160
▁mob	-6161
▁mut	-6162
ieuse	-6163
inion	-6164
light	-6165
▁coop	-6166
▁gina	-6167
▁legs	-6168
▁mini	-6169
▁path	-6170
▁rile	-6171
▁secr	-6172
▁unif	-6173
▁zion	-6174
excuse	-6175
usting	-6176
érique	-6177
▁aviez	-6178
▁boule	-6179
▁louis	-6180
▁plain	-6181
▁sales	-6182
▁sugar	-6183
▁tells	-6184
▁breath	-6185
▁crimin	-6186
▁entier	-6187
▁fermer	-6188
▁frappe	-6189
▁genoux	-6190
▁leaves	-6191
▁marion	-6192
▁ouvrir	-6193
▁pistol	-6194
▁virgin	-6195
ailleurs	-6196
▁arrivés	-6197
▁dépêche	-6198
▁gouvern	-6199
▁herself	-6200
▁introdu	-6201
▁manquer	-6202
▁marrant	-6203
▁nowhere	-6204
▁reality	-6205
▁stomach	-6206
▁bringing	-6207
▁discours	-6208
▁drinking	-6209
▁possibly	-6210
▁soldiers	-6211
▁somethin	-6212
▁brilliant	-6213
▁existence	-6214
▁reconnais	-6215
çu	-6216
aii	-6217
hon	-6218
iés	-6219
jou	-6220
écl	-6221
▁mm	-6222
▁yu	-6223
aper	-6224
qués	-6225
rape	-6226
èbre	-6227
▁lap	-6228
▁luc	-6229
▁pla	-6230
▁pét	-6231
▁siè	-6232
▁sut	-6233
auras	-6234
▁clin	-6235
▁coat	-6236
▁diab	-6237
▁ener	-6238
▁golf	-6239
▁iron	-6240
▁leon	-6241
▁tend	-6242
▁unis	-6243
ancing	-6244
appell	-6245
kimoto	-6246
velopp	-6247
▁angie	-6248
▁bread	-6249
▁cream	-6250
▁notes	-6251
▁rifle	-6252
▁riley	-6253
▁roger	-6254
▁teeth	-6255
▁vingt	-6256
▁épous	-6257
ference	-6258
▁cherry	-6259
▁chiens	-6260
▁courir	-6261
▁désert	-6262
▁espagn	-6263
▁famous	-6264
▁hiding	-6265
▁losing	-6266
▁matteo	-6267
▁opened	-6268
▁projet	-6269
▁showed	-6270
▁talkin	-6271
▁congrat	-6272
▁dressed	-6273
▁dropped	-6274
▁process	-6275
▁singing	-6276
▁sourire	-6277
▁breaking	-6278
▁couilles	-6279
▁discuter	-6280
▁document	-6281
▁opportun	-6282
▁rosemary	-6283
▁voitures	-6284
▁cigarette	-6285
▁récupérer	-6286
▁anniversaire	-6287
zo	-6288
▁da	-6289
back	-6290
ende	-6291
jets	-6292
oins	-6293
oler	-6294
pour	-6295
rine	-6296
teen	-6297
▁vom	-6298
aband	-6299
asing	-6300
prise	-6301
ément	-6302
▁dign	-6303
▁exec	-6304
▁grad	-6305
▁junk	-6306
▁lift	-6307
▁mail	-6308
▁meme	-6309
▁milk	-6310
▁révé	-6311
▁ther	-6312
entraî	-6313
riture	-6314
▁aidez	-6315
▁chère	-6316
▁comin	-6317
▁condu	-6318
▁joint	-6319
▁luisa	-6320
▁mater	-6321
▁menti	-6322
▁noble	-6323
▁silly	-6324
▁somme	-6325
▁troie	-6326
▁camera	-6327
▁center	-6328
▁friday	-6329
▁fright	-6330
▁inconn	-6331
▁strike	-6332
▁tunnel	-6333
▁austral	-6334
▁checked	-6335
▁keeping	-6336
▁passage	-6337
▁regardé	-6338
▁apparent	-6339
▁derniers	-6340
▁military	-6341
▁voudrait	-6342
▁transport	-6343
▁tsukimoto	-6344
ati	-6345
org	-6346
usc	-6347
▁wo	-6348
aler	-6349
mans	-6350
sons	-6351
▁cub	-6352
▁iui	-6353
▁ong	-6354
alous	-6355
icate	-6356
▁barn	-6357
▁craw	-6358
▁créé	-6359
▁data	-6360
▁diss	-6361
▁duke	-6362
▁held	-6363
▁hook	-6364
▁meal	-6365
▁sovi	-6366
▁vies	-6367
ignore	-6368
oigner	-6369
▁amène	-6370
▁billy	-6371
▁cadav	-6372
▁frais	-6373
▁marre	-6374
▁nicky	-6375
▁pizza	-6376
▁resté	-6377
▁sandy	-6378
ctement	-6379
▁acheté	-6380
▁belles	-6381
▁curtis	-6382
▁effort	-6383
▁ennuis	-6384
▁entrez	-6385
▁espoir	-6386
▁existe	-6387
▁goldie	-6388
▁images	-6389
▁mouche	-6390
▁recent	-6391
▁romant	-6392
▁turner	-6393
▁énorme	-6394
▁étrang	-6395
▁chicken	-6396
▁confirm	-6397
▁hearing	-6398
▁maîtres	-6399
▁mystery	-6400
▁parties	-6401
▁pierres	-6402
▁reviend	-6403
▁secrets	-6404
▁evidence	-6405
▁milliers	-6406
▁mountain	-6407
▁congratul	-6408
▁justement	-6409
▁destruction	-6410
cy	-6411
ox	-6412
pa	-6413
▁/	-6414
dia	-6415
opt	-6416
ori	-6417
sey	-6418
▁fâ	-6419
aily	-6420
arte	-6421
otes	-6422
▁dre	-6423
▁lac	-6424
▁ore	-6425
▁plu	-6426
▁pép	-6427
▁éte	-6428
apped	-6429
arrow	-6430
imate	-6431
irait	-6432
oigne	-6433
ompag	-6434
▁bale	-6435
▁falk	-6436
▁loud	-6437
▁mult	-6438
▁page	-6439
▁pity	-6440
▁rang	-6441
▁rout	-6442
▁wiii	-6443
▁zéro	-6444
ailles	-6445
érence	-6446
▁aimez	-6447
▁calif	-6448
▁coute	-6449
▁dante	-6450
▁dobel	-6451
▁drugs	-6452
▁poche	-6453
▁quant	-6454
▁wayne	-6455
▁bright	-6456
▁cabine	-6457
▁celebr	-6458
▁cheese	-6459
▁custom	-6460
▁daniel	-6461
▁marier	-6462
▁métier	-6463
▁nouvel	-6464
▁pleure	-6465
▁retire	-6466
▁soldat	-6467
▁suffis	-6468
▁territ	-6469
▁témoin	-6470
▁venait	-6471
▁writer	-6472
ervation	-6473
▁college	-6474
▁détails	-6475
▁entière	-6476
▁manière	-6477
▁montana	-6478
▁subject	-6479
▁margaret	-6480
▁mensonge	-6481
▁vendredi	-6482
▁vérifier	-6483
▁ambulance	-6484
▁amoureuse	-6485
▁merveille	-6486
▁représent	-6487
▁commission	-6488
▁department	-6489
▁responsibility	-6490
kn	-6491
osh	-6492
ura	-6493
agen	-6494
ares	-6495
iday	-6496
itor	-6497
nels	-6498
▁dry	-6499
▁haw	-6500
▁hug	-6501
▁obé	-6502
▁oeu	-6503
▁phy	-6504
▁pin	-6505
▁vul	-6506
rance	-6507
▁chaî	-6508
▁corn	-6509
▁doug	-6510
▁dudd	-6511
▁eiie	-6512
▁evac	-6513
▁gris	-6514
▁guit	-6515
▁jard	-6516
▁laws	-6517
▁liar	-6518
▁lune	-6519
▁oson	-6520
▁resc	-6521
▁tues	-6522
▁viet	-6523
espoir	-6524
église	-6525
▁built	-6526
▁chase	-6527
▁coinc	-6528
▁côtés	-6529
▁freak	-6530
▁molly	-6531
▁quels	-6532
▁video	-6533
asseoir	-6534
vention	-6535
▁announ	-6536
▁blonde	-6537
▁cathol	-6538
▁disons	-6539
▁engine	-6540
▁garden	-6541
▁gettin	-6542
▁hardly	-6543
▁salope	-6544
▁silent	-6545
▁animals	-6546
▁bridger	-6547
▁combatt	-6548
▁defense	-6549
▁manteau	-6550
▁personn	-6551
▁weekend	-6552
intéresse	-6553
▁utiliser	-6554
▁attendant	-6555
▁remercier	-6556
▁represent	-6557
▁technique	-6558
▁invitation	-6559
alf	-6560
imm	-6561
jan	-6562
low	-6563
rim	-6564
rot	-6565
run	-6566
asty	-6567
cade	-6568
ging	-6569
oign	-6570
oned	-6571
ores	-6572
rose	-6573
état	-6574
▁chi	-6575
▁idé	-6576
▁ker	-6577
▁sne	-6578
agues	-6579
▁agre	-6580
▁bird	-6581
▁bond	-6582
▁cing	-6583
▁cred	-6584
▁doux	-6585
▁ense	-6586
▁laid	-6587
▁nich	-6588
▁rick	-6589
▁rise	-6590
▁rôle	-6591
▁vote	-6592
icious	-6593
▁aurez	-6594
▁bible	-6595
▁bleed	-6596
▁boute	-6597
▁espér	-6598
▁faite	-6599
▁games	-6600
▁grace	-6601
▁idées	-6602
▁ignor	-6603
▁joues	-6604
▁osono	-6605
▁scorp	-6606
▁spain	-6607
▁texas	-6608
acheter	-6609
▁banque	-6610
▁crains	-6611
▁emmène	-6612
▁envers	-6613
▁freddy	-6614
▁lately	-6615
▁passez	-6616
▁pièces	-6617
▁proche	-6618
▁repart	-6619
▁social	-6620
▁throat	-6621
▁breathe	-6622
▁couleur	-6623
▁emmenez	-6624
▁envoyer	-6625
▁frankie	-6626
▁holiday	-6627
▁invited	-6628
▁knowing	-6629
▁maximum	-6630
▁noticed	-6631
▁voulons	-6632
▁written	-6633
▁californ	-6634
▁défendre	-6635
▁electric	-6636
▁montagne	-6637
▁préparer	-6638
▁rappelez	-6639
▁remarqué	-6640
▁apologize	-6641
▁carpenter	-6642
▁christian	-6643
▁expecting	-6644
▁forgotten	-6645
▁operation	-6646
▁seriously	-6647
aré	-6648
mad	-6649
olé	-6650
sif	-6651
case	-6652
chir	-6653
isco	-6654
▁asg	-6655
▁pad	-6656
▁réd	-6657
accep	-6658
aison	-6659
icles	-6660
never	-6661
udent	-6662
▁bern	-6663
▁enqu	-6664
▁hill	-6665
▁lied	-6666
▁lois	-6667
▁pere	-6668
▁pile	-6669
▁robb	-6670
▁scar	-6671
▁sche	-6672
▁site	-6673
▁unit	-6674
amment	-6675
▁becom	-6676
▁clock	-6677
▁futur	-6678
▁loose	-6679
▁noise	-6680
▁peint	-6681
▁prime	-6682
▁repos	-6683
▁spoke	-6684
▁stink	-6685
▁tante	-6686
▁étudi	-6687
excuser	-6688
▁anakin	-6689
▁caisse	-6690
▁cowboy	-6691
▁famili	-6692
▁fiston	-6693
▁jambes	-6694
▁nearly	-6695
▁occupé	-6696
▁paquet	-6697
▁priest	-6698
▁résult	-6699
▁ventre	-6700
▁agustin	-6701
▁arrakis	-6702
▁pretend	-6703
▁release	-6704
▁volonté	-6705
▁whoever	-6706
▁director	-6707
▁minister	-6708
▁concerned	-6709
▁insurance	-6710
▁knowledge	-6711
▁souvenirs	-6712
▁downstairs	-6713
▁particular	-6714
▁unfortunately	-6715
imo	-6716
jah	-6717
oti	-6718
uée	-6719
zzy	-6720
aume	-6721
hany	-6722
keep	-6723
laug	-6724
liez	-6725
ombe	-6726
vous	-6727
▁alb	-6728
▁mél	-6729
▁veh	-6730
▁bats	-6731
▁butt	-6732
▁fraz	-6733
▁heat	-6734
▁meat	-6735
▁mood	-6736
▁queu	-6737
▁rope	-6738
▁soud	-6739
▁viré	-6740
isible	-6741
ulaire	-6742
▁auras	-6743
▁awake	-6744
▁blame	-6745
▁cible	-6746
▁clown	-6747
▁lever	-6748
▁piste	-6749
▁plong	-6750
▁poids	-6751
▁samir	-6752
▁sandw	-6753
▁shell	-6754
▁shows	-6755
▁units	-6756
▁virer	-6757
▁willy	-6758
▁couche	-6759
▁county	-6760
▁disapp	-6761
▁energy	-6762
▁guilty	-6763
▁remont	-6764
▁sports	-6765
▁aveugle	-6766
▁compter	-6767
▁fingers	-6768
▁frances	-6769
▁produit	-6770
▁towards	-6771
▁rappeler	-6772
▁regardes	-6773
▁embarrass	-6774
▁rappelles	-6775
▁réveiller	-6776
▁sentiments	-6777
▁appartement	-6778
hs	-6779
iod	-6780
lus	-6781
oui	-6782
oué	-6783
▁ol	-6784
▁́d	-6785
orig	-6786
rale	-6787
rase	-6788
stit	-6789
émie	-6790
▁jan	-6791
▁jok	-6792
▁mai	-6793
▁tab	-6794
acles	-6795
ashed	-6796
asure	-6797
human	-6798
izing	-6799
ublic	-6800
ueill	-6801
▁cage	-6802
▁déco	-6803
▁hark	-6804
▁init	-6805
▁surp	-6806
▁tong	-6807
▁wash	-6808
ground	-6809
itaire	-6810
mandez	-6811
▁accro	-6812
▁aimes	-6813
▁allée	-6814
▁garry	-6815
▁incap	-6816
▁magas	-6817
▁manif	-6818
▁pause	-6819
▁poign	-6820
▁shout	-6821
▁tonbo	-6822
▁unité	-6823
▁équip	-6824
osition	-6825
▁chauff	-6826
▁consid	-6827
▁donnes	-6828
▁douche	-6829
▁maggie	-6830
▁pousse	-6831
▁tienne	-6832
▁travel	-6833
appelles	-6834
▁conduit	-6835
▁duddits	-6836
▁décider	-6837
▁frapper	-6838
▁lettres	-6839
▁matters	-6840
▁numbers	-6841
▁parlait	-6842
▁pourrai	-6843
▁poursui	-6844
▁ressemb	-6845
▁tempête	-6846
▁touchez	-6847
▁victime	-6848
▁enregist	-6849
▁interest	-6850
▁ministre	-6851
▁murdered	-6852
▁neighbor	-6853
▁pressure	-6854
▁retraite	-6855
▁victimes	-6856
▁exception	-6857
▁meilleurs	-6858
▁rejoindre	-6859
▁importance	-6860
▁incredible	-6861
▁intelligent	-6862
▁malheureusement	-6863
'.	-6864
inn	-6865
nam	-6866
oeu	-6867
>...	-6868
agol	-6869
odes	-6870
osop	-6871
uted	-6872
érez	-6873
▁due	-6874
▁nan	-6875
▁nuc	-6876
▁vic	-6877
▁wet	-6878
about	-6879
atell	-6880
chuck	-6881
ician	-6882
nings	-6883
onimo	-6884
orted	-6885
▁allô	-6886
▁déte	-6887
▁farm	-6888
▁flag	-6889
▁gott	-6890
▁guar	-6891
▁jano	-6892
▁jobs	-6893
▁joie	-6894
▁pair	-6895
▁prét	-6896
▁saig	-6897
▁stan	-6898
▁teii	-6899
▁vive	-6900
▁éner	-6901
antage	-6902
appart	-6903
tering	-6904
▁arres	-6905
▁cares	-6906
▁fence	-6907
▁grown	-6908
▁salon	-6909
▁senti	-6910
▁sever	-6911
▁shame	-6912
▁sharp	-6913
▁baisse	-6914
▁cauche	-6915
▁conven	-6916
▁crétin	-6917
▁devine	-6918
▁disant	-6919
▁ennemi	-6920
▁filled	-6921
▁guerri	-6922
▁jardin	-6923
▁jonesy	-6924
▁menace	-6925
▁mentir	-6926
▁obligé	-6927
▁parent	-6928
▁period	-6929
▁spider	-6930
▁square	-6931
▁succès	-6932
▁trésor	-6933
▁deserve	-6934
▁excited	-6935
▁factory	-6936
▁frazier	-6937
▁heading	-6938
▁majesty	-6939
▁natural	-6940
▁opinion	-6941
▁reculez	-6942
▁écouter	-6943
▁bataille	-6944
▁geronimo	-6945
▁imbécile	-6946
▁philosop	-6947
▁racontes	-6948
▁realized	-6949
▁according	-6950
▁surprised	-6951
▁thousands	-6952
▁nourriture	-6953
▁production	-6954
▁imagination	-6955
▁intelligence	-6956
yl	-6957
adm	-6958
ago	-6959
gré	-6960
uge	-6961
âge	-6962
▁az	-6963
atri	-6964
burg	-6965
ford	-6966
itez	-6967
oard	-6968
osed	-6969
▁aid	-6970
▁gig	-6971
▁gro	-6972
▁iet	-6973
▁lee	-6974
▁mix	-6975
▁île	-6976
aster	-6977
autor	-6978
board	-6979
ening	-6980
enses	-6981
igner	-6982
▁abby	-6983
▁aunt	-6984
▁cana	-6985
▁cess	-6986
▁coul	-6987
▁dais	-6988
▁dory	-6989
▁dépê	-6990
▁gray	-6991
▁juan	-6992
▁lion	-6993
▁pyth	-6994
▁remo	-6995
▁stol	-6996
▁tués	-6997
amuser	-6998
change	-6999
enaire	-7000
enfant	-7001
▁benef	-7002
▁charm	-7003
▁filer	-7004
▁hired	-7005
▁rever	-7006
▁satur	-7007
▁spice	-7008
▁écout	-7009
chement	-7010
utation	-7011
▁aboard	-7012
▁acting	-7013
▁buried	-7014
▁droits	-7015
▁easier	-7016
▁failed	-7017
▁fortun	-7018
▁indeed	-7019
▁malgré	-7020
▁negoti	-7021
▁palace	-7022
▁passes	-7023
▁russes	-7024
▁russia	-7025
▁régler	-7026
▁speech	-7027
▁tribun	-7028
ointment	-7029
▁animaux	-7030
▁apporté	-7031
▁chemise	-7032
▁earlier	-7033
▁flowers	-7034
▁harkonn	-7035
▁pensent	-7036
▁perform	-7037
▁pourras	-7038
▁prudent	-7039
▁tourner	-7040
▁version	-7041
▁cassette	-7042
▁coupable	-7043
▁pression	-7044
▁remettre	-7045
▁gentleman	-7046
▁mountains	-7047
▁photograp	-7048
▁apparently	-7049
▁television	-7050
▁disappeared	-7051
éf	-7052
adi	-7053
fus	-7054
xyg	-7055
ére	-7056
▁$.	-7057
▁mn	-7058
▁sg	-7059
down	-7060
etat	-7061
itée	-7062
pert	-7063
umes	-7064
▁ern	-7065
▁fbl	-7066
▁ult	-7067
▁wak	-7068
allée	-7069
iling	-7070
ombre	-7071
▁brun	-7072
▁coha	-7073
▁gare	-7074
▁hobb	-7075
▁jury	-7076
▁lame	-7077
▁lamp	-7078
▁merd	-7079
▁mile	-7080
▁noms	-7081
▁oise	-7082
▁thor	-7083
▁trag	-7084
▁ugly	-7085
atrice	-7086
hammad	-7087
ormais	-7088
▁cards	-7089
▁débar	-7090
▁démén	-7091
▁embar	-7092
▁feras	-7093
▁fréqu	-7094
▁knife	-7095
▁pouss	-7096
▁revol	-7097
▁separ	-7098
▁stars	-7099
▁thief	-7100
▁toast	-7101
▁trous	-7102
▁woods	-7103
endroit	-7104
▁casser	-7105
▁chargé	-7106
▁fascin	-7107
▁finger	-7108
▁honour	-7109
▁paying	-7110
▁pocket	-7111
▁procès	-7112
▁ralent	-7113
▁repose	-7114
▁requin	-7115
▁soient	-7116
▁belongs	-7117
▁bonheur	-7118
▁comptes	-7119
▁contrib	-7120
▁devenue	-7121
▁essayez	-7122
▁garçons	-7123
▁hanging	-7124
▁invités	-7125
▁journey	-7126
▁license	-7127
▁ouverte	-7128
▁regular	-7129
▁routine	-7130
▁selling	-7131
▁tremble	-7132
▁trinity	-7133
▁weather	-7134
▁willing	-7135
▁attaquer	-7136
▁cherchez	-7137
▁cohaagen	-7138
▁enchanté	-7139
▁expected	-7140
▁mattiece	-7141
▁positive	-7142
▁presence	-7143
▁relation	-7144
▁assistant	-7145
▁francesca	-7146
▁invisible	-7147
▁supporter	-7148
▁therefore	-7149
▁cigarettes	-7150
▁finalement	-7151
▁comfortable	-7152
▁certainement	-7153
gi	-7154
ês	-7155
ýe	-7156
bar	-7157
bli	-7158
esh	-7159
eté	-7160
gne	-7161
lon	-7162
omc	-7163
ota	-7164
uls	-7165
▁ot	-7166
aché	-7167
icip	-7168
lene	-7169
othy	-7170
vait	-7171
vant	-7172
ûter	-7173
▁bot	-7174
▁cyn	-7175
▁inj	-7176
▁lab	-7177
▁orb	-7178
▁zoo	-7179
bling	-7180
field	-7181
house	-7182
isted	-7183
▁bert	-7184
▁blew	-7185
▁bous	-7186
▁bron	-7187
▁cest	-7188
▁hamm	-7189
▁hers	-7190
▁méch	-7191
▁onto	-7192
▁rehe	-7193
▁réel	-7194
▁surr	-7195
▁tail	-7196
▁tuez	-7197
assure	-7198
ingrad	-7199
iverse	-7200
mother	-7201
ouille	-7202
▁accus	-7203
▁battu	-7204
▁cheap	-7205
▁crowd	-7206
▁deser	-7207
▁ethan	-7208
▁famil	-7209
▁folie	-7210
▁grimp	-7211
▁issue	-7212
▁kilom	-7213
▁kilos	-7214
▁lycée	-7215
▁noire	-7216
▁persu	-7217
▁queje	-7218
▁rense	-7219
▁sorci	-7220
▁split	-7221
▁tirez	-7222
▁titre	-7223
istance	-7224
▁enculé	-7225
▁expert	-7226
▁garant	-7227
▁grandi	-7228
▁helped	-7229
▁junior	-7230
▁matéri	-7231
▁mister	-7232
▁montré	-7233
▁rentré	-7234
▁spread	-7235
▁stayed	-7236
▁stolen	-7237
▁toilet	-7238
▁traces	-7239
appelait	-7240
▁attendu	-7241
▁choisis	-7242
▁covered	-7243
▁current	-7244
▁natalie	-7245
▁pauvres	-7246
▁sending	-7247
▁soldier	-7248
▁explique	-7249
▁midnight	-7250
▁reporter	-7251
▁returned	-7252
▁education	-7253
▁psycholog	-7254
▁réfléchir	-7255
▁screaming	-7256
▁professional	-7257
asc	-7258
cho	-7259
ias	-7260
ify	-7261
rut	-7262
ump	-7263
âme	-7264
èse	-7265
▁ay	-7266
agon	-7267
aies	-7268
igan	-7269
ingo	-7270
ired	-7271
resp	-7272
zzie	-7273
▁eva	-7274
▁fox	-7275
▁han	-7276
▁jon	-7277
▁nap	-7278
▁rit	-7279
▁saf	-7280
derer	-7281
enger	-7282
ganah	-7283
ignor	-7284
illée	-7285
roits	-7286
récie	-7287
tesse	-7288
élect	-7289
▁elev	-7290
▁geor	-7291
▁gren	-7292
▁jedi	-7293
▁jord	-7294
▁lait	-7295
▁lent	-7296
▁nana	-7297
▁pige	-7298
▁pill	-7299
▁poet	-7300
▁rabb	-7301
▁raté	-7302
▁roof	-7303
▁rude	-7304
▁rues	-7305
▁sees	-7306
▁sers	-7307
▁sinc	-7308
▁swat	-7309
▁ward	-7310
▁weil	-7311
existe	-7312
issant	-7313
quette	-7314
rences	-7315
▁avent	-7316
▁censé	-7317
▁color	-7318
▁doris	-7319
▁escal	-7320
▁faits	-7321
▁finan	-7322
▁indiv	-7323
▁kaena	-7324
▁medic	-7325
▁recom	-7326
▁roule	-7327
▁salad	-7328
▁sheep	-7329
▁slept	-7330
▁squad	-7331
▁whore	-7332
stances	-7333
▁afford	-7334
▁avenue	-7335
▁engage	-7336
▁flotte	-7337
▁garage	-7338
▁hasard	-7339
▁howard	-7340
▁instit	-7341
▁market	-7342
▁monday	-7343
▁saturn	-7344
▁serons	-7345
▁sharon	-7346
▁splend	-7347
▁transl	-7348
▁dancing	-7349
▁details	-7350
▁express	-7351
▁haganah	-7352
▁helping	-7353
▁jackson	-7354
▁joindre	-7355
▁lorsque	-7356
▁partage	-7357
▁prendra	-7358
▁raisons	-7359
▁rivière	-7360
▁sympath	-7361
▁tickets	-7362
▁vivants	-7363
▁warrior	-7364
▁watched	-7365
▁échange	-7366
▁campagne	-7367
▁changing	-7368
▁demandez	-7369
▁portable	-7370
▁russians	-7371
▁swimming	-7372
▁universe	-7373
▁basically	-7374
▁transform	-7375
▁travaillé	-7376
▁connaissance	-7377
oyd	-7378
pre	-7379
rac	-7380
écu	-7381
éma	-7382
▁vé	-7383
eras	-7384
ynet	-7385
ètre	-7386
▁---	-7387
▁bul	-7388
▁gan	-7389
▁kim	-7390
▁lau	-7391
▁rey	-7392
▁smé	-7393
athan	-7394
habit	-7395
ifier	-7396
ilson	-7397
opard	-7398
▁bart	-7399
▁cord	-7400
▁dout	-7401
▁ferm	-7402
▁flam	-7403
▁hong	-7404
▁jews	-7405
▁luci	-7406
▁mast	-7407
▁mode	-7408
▁oeil	-7409
▁plac	-7410
▁sage	-7411
▁shop	-7412
▁traf	-7413
demain	-7414
▁amuse	-7415
▁appré	-7416
▁bound	-7417
▁ended	-7418
▁finis	-7419
▁focus	-7420
▁matri	-7421
▁piège	-7422
▁suivi	-7423
▁suppl	-7424
▁turns	-7425
▁vôtre	-7426
▁wheel	-7427
attaque	-7428
▁agreed	-7429
▁borrow	-7430
▁bouffe	-7431
▁brooke	-7432
▁canaan	-7433
▁carlos	-7434
▁decent	-7435
▁faible	-7436
▁fermez	-7437
▁freeze	-7438
▁guards	-7439
▁guests	-7440
▁hoping	-7441
▁mariée	-7442
▁moyens	-7443
▁pissed	-7444
▁princi	-7445
▁python	-7446
▁skynet	-7447
▁slight	-7448
▁veille	-7449
▁vécano	-7450
▁ancient	-7451
▁baleine	-7452
▁bedroom	-7453
▁britann	-7454
▁chinois	-7455
▁corning	-7456
▁disturb	-7457
▁houston	-7458
▁risques	-7459
▁souffle	-7460
▁survécu	-7461
▁turning	-7462
▁arrivera	-7463
▁carrière	-7464
▁chouette	-7465
▁demandes	-7466
▁followed	-7467
▁français	-7468
▁guarante	-7469
▁japonais	-7470
▁nouveaux	-7471
▁patience	-7472
▁prendrai	-7473
▁recevoir	-7474
▁réveillé	-7475
▁victoire	-7476
▁introduce	-7477
▁reprendre	-7478
▁responsible	-7479
▁corningstone	-7480
▁instructions	-7481
ça	-7482
aby	-7483
aph	-7484
auf	-7485
bot	-7486
dio	-7487
ila	-7488
isa	-7489
isp	-7490
▁cd	-7491
afna	-7492
ases	-7493
mark	-7494
raft	-7495
rill	-7496
uste	-7497
èner	-7498
▁dim	-7499
▁jai	-7500
▁ken	-7501
▁lux	-7502
▁nad	-7503
▁pus	-7504
ancée	-7505
asons	-7506
chers	-7507
inese	-7508
onges	-7509
épous	-7510
êtres	-7511
▁aidé	-7512
▁blas	-7513
▁chap	-7514
▁clar	-7515
▁deck	-7516
▁elin	-7517
▁fuir	-7518
▁murs	-7519
▁porc	-7520
▁pron	-7521
▁remb	-7522
▁soda	-7523
▁toit	-7524
isions	-7525
seless	-7526
▁baisé	-7527
▁const	-7528
▁crise	-7529
▁dafna	-7530
▁daisy	-7531
▁entré	-7532
▁faces	-7533
▁forêt	-7534
▁génie	-7535
▁karen	-7536
▁louie	-7537
▁privé	-7538
▁ralph	-7539
▁ramen	-7540
▁shape	-7541
▁sonny	-7542
▁terme	-7543
emmener	-7544
▁affect	-7545
▁areyou	-7546
▁caméra	-7547
▁couché	-7548
▁create	-7549
▁feront	-7550
▁fleurs	-7551
▁frappé	-7552
▁mamadi	-7553
▁palais	-7554
▁papier	-7555
▁prénom	-7556
▁slowly	-7557
▁spring	-7558
▁stress	-7559
▁sunday	-7560
▁talley	-7561
▁tongue	-7562
▁voyais	-7563
▁wilson	-7564
idemment	-7565
▁couteau	-7566
▁entends	-7567
▁morceau	-7568
▁panique	-7569
▁pleurer	-7570
▁revenez	-7571
▁somehow	-7572
▁candyman	-7573
▁exciting	-7574
▁interdit	-7575
▁original	-7576
▁prepared	-7577
▁sentence	-7578
▁shopping	-7579
▁terrific	-7580
▁whenever	-7581
▁désormais	-7582
▁fantastic	-7583
▁lendemain	-7584
▁understood	-7585
▁international	-7586
lam	-7587
obs	-7588
oul	-7589
rod	-7590
abie	-7591
aube	-7592
chor	-7593
cool	-7594
gger	-7595
imin	-7596
play	-7597
rich	-7598
▁daw	-7599
▁der	-7600
▁gel	-7601
▁ooh	-7602
▁pub	-7603
▁rej	-7604
▁sép	-7605
▁tip	-7606
▁urg	-7607
▁wed	-7608
exist	-7609
ignes	-7610
▁adul	-7611
▁dipl	-7612
▁iong	-7613
▁link	-7614
▁mose	-7615
▁pigé	-7616
▁pool	-7617
▁ruin	-7618
▁sels	-7619
▁trev	-7620
▁égal	-7621
emmène	-7622
enseur	-7623
entrée	-7624
▁aiors	-7625
▁amené	-7626
▁atter	-7627
▁bouff	-7628
▁chiot	-7629
▁citiz	-7630
▁coule	-7631
▁coupé	-7632
▁créer	-7633
▁dotty	-7634
▁escap	-7635
▁fermé	-7636
▁guide	-7637
▁kitty	-7638
▁knees	-7639
▁laver	-7640
▁mouve	-7641
▁médic	-7642
▁older	-7643
▁proof	-7644
▁réser	-7645
▁sarge	-7646
▁shake	-7647
▁spéci	-7648
▁witch	-7649
cidence	-7650
▁amster	-7651
▁burned	-7652
▁cinéma	-7653
▁déclen	-7654
▁gardez	-7655
▁jacket	-7656
▁lizzie	-7657
▁potter	-7658
▁replic	-7659
▁richie	-7660
▁tanguy	-7661
▁traité	-7662
▁transf	-7663
▁valeur	-7664
▁verrai	-7665
intéress	-7666
▁chinese	-7667
▁commiss	-7668
▁deviens	-7669
▁diamond	-7670
▁données	-7671
▁falling	-7672
▁falloir	-7673
▁fatigué	-7674
▁finding	-7675
▁letting	-7676
▁managed	-7677
▁marquez	-7678
▁papiers	-7679
▁paroles	-7680
▁pourrez	-7681
▁propres	-7682
▁préféré	-7683
▁réunion	-7684
▁sisters	-7685
▁sméagol	-7686
▁society	-7687
▁bastards	-7688
▁espagnol	-7689
▁familiar	-7690
▁internet	-7691
▁japanese	-7692
▁physique	-7693
▁planning	-7694
▁souvenez	-7695
▁survivre	-7696
▁téléphon	-7697
▁demandais	-7698
▁disappear	-7699
▁hollywood	-7700
▁disgusting	-7701
▁yourselves	-7702
▁informations	-7703
bu	-7704
cio	-7705
hel	-7706
ido	-7707
osa	-7708
drez	-7709
eter	-7710
iale	-7711
olas	-7712
otch	-7713
quée	-7714
rain	-7715
rett	-7716
uves	-7717
âtre	-7718
érée	-7719
▁ace	-7720
▁ast	-7721
▁ete	-7722
▁méf	-7723
▁tam	-7724
▁tow	-7725
arily	-7726
euble	-7727
irais	-7728
rison	-7729
under	-7730
▁brut	-7731
▁fash	-7732
▁gêne	-7733
▁jeux	-7734
▁loss	-7735
▁peco	-7736
▁pomp	-7737
▁rese	-7738
▁tear	-7739
▁badly	-7740
▁below	-7741
▁diego	-7742
▁finie	-7743
▁flesh	-7744
▁guéri	-7745
▁joyce	-7746
▁lower	-7747
▁malin	-7748
▁optim	-7749
▁pekar	-7750
▁perte	-7751
▁relie	-7752
▁rufus	-7753
▁traff	-7754
envoyer	-7755
▁angela	-7756
▁artist	-7757
▁barely	-7758
▁bosser	-7759
▁drogue	-7760
▁essaye	-7761
▁forced	-7762
▁genius	-7763
▁harbor	-7764
▁jewish	-7765
▁lorsqu	-7766
▁préven	-7767
▁renvoy	-7768
▁slaves	-7769
▁tanaka	-7770
▁voient	-7771
▁voleur	-7772
▁éviter	-7773
▁adresse	-7774
▁alcohol	-7775
▁complet	-7776
▁constit	-7777
▁envoyez	-7778
▁hammond	-7779
▁individ	-7780
▁leonard	-7781
▁ordered	-7782
▁parlons	-7783
▁pleased	-7784
▁puisque	-7785
apprendre	-7786
▁memories	-7787
▁muhammad	-7788
▁préparez	-7789
▁recently	-7790
▁répondez	-7791
▁christine	-7792
▁expensive	-7793
▁expliquer	-7794
▁naissance	-7795
▁perfectly	-7796
▁permettez	-7797
▁telephone	-7798
▁troisième	-7799
▁conference	-7800
▁représente	-7801
▁apparemment	-7802
▁franchement	-7803
vu	-7804
bro	-7805
dev	-7806
iac	-7807
obé	-7808
▁ze	-7809
abil	-7810
aura	-7811
bers	-7812
hino	-7813
iere	-7814
vain	-7815
▁bac	-7816
▁kaz	-7817
▁rab	-7818
▁shh	-7819
▁véh	-7820
icans	-7821
icked	-7822
ielle	-7823
uring	-7824
érale	-7825
▁acqu	-7826
▁clôt	-7827
▁desp	-7828
▁mène	-7829
▁repl	-7830
▁rust	-7831
▁symb	-7832
iation	-7833
▁arbre	-7834
▁bombe	-7835
▁brick	-7836
▁carol	-7837
▁chest	-7838
▁cholo	-7839
▁cleve	-7840
▁etats	-7841
▁falls	-7842
▁fourn	-7843
▁haute	-7844
▁hurts	-7845
▁impat	-7846
▁lente	-7847
▁miami	-7848
▁minds	-7849
▁monté	-7850
▁moral	-7851
▁naked	-7852
▁pluie	-7853
▁queue	-7854
▁rasse	-7855
▁sykes	-7856
▁têtes	-7857
▁utile	-7858
▁wound	-7859
herland	-7860
ressive	-7861
écouter	-7862
▁auriez	-7863
▁basket	-7864
▁budget	-7865
▁compan	-7866
▁drinks	-7867
▁engagé	-7868
▁fantas	-7869
▁fellas	-7870
▁inspir	-7871
▁member	-7872
▁membre	-7873
▁orange	-7874
▁passée	-7875
▁robots	-7876
▁russie	-7877
▁satine	-7878
▁ticket	-7879
▁urgent	-7880
▁utilis	-7881
▁yellow	-7882
▁échapp	-7883
▁conséqu	-7884
▁enlever	-7885
▁fashion	-7886
▁kingpin	-7887
▁marines	-7888
▁menteur	-7889
▁parking	-7890
▁revenge	-7891
▁anderson	-7892
▁cherches	-7893
▁concerne	-7894
▁esclaves	-7895
▁handsome	-7896
▁instinct	-7897
▁officier	-7898
▁pouvoirs	-7899
▁amsterdam	-7900
▁américain	-7901
▁breathing	-7902
▁committed	-7903
▁extremely	-7904
▁signature	-7905
▁différents	-7906
▁félicitations	-7907
▁congratulations	-7908
fl	-7909
bri	-7910
enu	-7911
ext	-7912
llo	-7913
anne	-7914
auté	-7915
cast	-7916
endy	-7917
erte	-7918
fois	-7919
icon	-7920
ifié	-7921
nons	-7922
ouss	-7923
rire	-7924
romp	-7925
walk	-7926
çait	-7927
▁amp	-7928
▁aýý	-7929
▁clo	-7930
▁dov	-7931
▁dén	-7932
▁séd	-7933
▁usa	-7934
▁wto	-7935
agent	-7936
agers	-7937
lever	-7938
ouill	-7939
rated	-7940
▁'...	-7941
▁ayez	-7942
▁bust	-7943
▁carn	-7944
▁caus	-7945
▁coca	-7946
▁ears	-7947
▁juif	-7948
▁lung	-7949
▁menu	-7950
▁miel	-7951
▁nova	-7952
▁punk	-7953
▁répl	-7954
▁rêvé	-7955
▁shel	-7956
▁slip	-7957
▁soap	-7958
▁stud	-7959
▁trap	-7960
▁tuée	-7961
▁vain	-7962
▁warn	-7963
▁whom	-7964
atoire	-7965
ennemi	-7966
entrer	-7967
issons	-7968
raille	-7969
▁bibli	-7970
▁blade	-7971
▁boats	-7972
▁booth	-7973
▁claim	-7974
▁croix	-7975
▁diman	-7976
▁démon	-7977
▁etern	-7978
▁fumer	-7979
▁minor	-7980
▁neutr	-7981
▁paint	-7982
▁radar	-7983
▁randy	-7984
▁saute	-7985
▁scare	-7986
▁score	-7987
▁souci	-7988
▁sépar	-7989
▁threw	-7990
▁vainc	-7991
▁vieil	-7992
▁écras	-7993
visions	-7994
▁access	-7995
▁andrew	-7996
▁apache	-7997
▁circum	-7998
▁condam	-7999
▁crimes	-8000
▁dollar	-8001
▁includ	-8002
▁jackie	-8003
▁mandat	-8004
▁matrix	-8005
▁rights	-8006
▁saviez	-8007
▁signer	-8008
▁stairs	-8009
▁trompe	-8010
▁unités	-8011
▁épouse	-8012
▁changes	-8013
▁complex	-8014
▁croient	-8015
▁divorce	-8016
▁excuses	-8017
▁libérer	-8018
▁marlene	-8019
▁members	-8020
▁raconté	-8021
▁vampire	-8022
▁wounded	-8023
attendais	-8024
▁arrested	-8025
▁checking	-8026
▁déranger	-8027
▁incident	-8028
▁pistolet	-8029
▁saturnin	-8030
▁thoughts	-8031
▁character	-8032
▁mensonges	-8033
▁discovered	-8034
▁personally	-8035
▁sutherland	-8036
▁organization	-8037
??	-8038
tw	-8039
bey	-8040
gés	-8041
mat	-8042
pte	-8043
why	-8044
wom	-8045
▁câ	-8046
▁vo	-8047
rand	-8048
ueil	-8049
édie	-8050
épée	-8051
ésie	-8052
▁aye	-8053
▁boi	-8054
▁gym	-8055
▁hut	-8056
▁méc	-8057
▁sai	-8058
▁tin	-8059
▁yam	-8060
antom	-8061
hness	-8062
nolds	-8063
there	-8064
ètres	-8065
▁afin	-8066
▁axis	-8067
▁delà	-8068
▁dies	-8069
▁exit	-8070
▁exéc	-8071
▁fate	-8072
▁grew	-8073
▁géné	-8074
▁puss	-8075
▁pépé	-8076
▁term	-8077
▁vick	-8078
▁wide	-8079
▁yuri	-8080
▁étoi	-8081
alcool	-8082
ifique	-8083
ograph	-8084
▁anges	-8085
▁based	-8086
▁benny	-8087
▁brûle	-8088
▁cesse	-8089
▁chass	-8090
▁chunk	-8091
▁corde	-8092
▁creep	-8093
▁doyou	-8094
▁déter	-8095
▁ferez	-8096
▁finit	-8097
▁henry	-8098
▁ideas	-8099
▁influ	-8100
▁noirs	-8101
▁obten	-8102
▁solar	-8103
▁turin	-8104
▁vidéo	-8105
▁woody	-8106
énergie	-8107
▁bosses	-8108
▁clever	-8109
▁contro	-8110
▁idiots	-8111
▁lâcher	-8112
▁passés	-8113
▁planes	-8114
▁profit	-8115
▁pulled	-8116
▁sacrée	-8117
▁singer	-8118
▁sooner	-8119
▁suffer	-8120
▁theory	-8121
▁tombée	-8122
▁winner	-8123
atherine	-8124
▁altesse	-8125
▁article	-8126
▁bateman	-8127
▁cellule	-8128
▁channel	-8129
▁charger	-8130
▁collect	-8131
▁copains	-8132
▁couvrir	-8133
▁esclave	-8134
▁fremont	-8135
▁phantom	-8136
▁replace	-8137
▁selsdon	-8138
▁surpris	-8139
▁titanic	-8140
▁gentille	-8141
▁highness	-8142
▁marshall	-8143
▁meurtres	-8144
▁precious	-8145
▁respirer	-8146
▁reynolds	-8147
▁transfer	-8148
▁tribunal	-8149
▁autrement	-8150
▁champions	-8151
▁combattre	-8152
▁convinced	-8153
▁complicated	-8154
▁directement	-8155
▁heureusement	-8156
ko	-8157
sn	-8158
ti	-8159
bur	-8160
iki	-8161
now	-8162
tma	-8163
xim	-8164
▁lé	-8165
cale	-8166
drey	-8167
erne	-8168
ians	-8169
icks	-8170
icop	-8171
ival	-8172
omac	-8173
orde	-8174
rite	-8175
ware	-8176
▁bun	-8177
▁cav	-8178
▁rét	-8179
acier	-8180
esome	-8181
imble	-8182
itant	-8183
outez	-8184
▁anti	-8185
▁bone	-8186
▁boom	-8187
▁cany	-8188
▁dall	-8189
▁dira	-8190
▁enem	-8191
▁libr	-8192
▁maid	-8193
▁obsc	-8194
▁romp	-8195
▁salv	-8196
▁serp	-8197
▁shaw	-8198
▁solo	-8199
▁stro	-8200
▁tact	-8201
▁tess	-8202
▁wins	-8203
▁âtma	-8204
▁éche	-8205
atives	-8206
aufman	-8207
ernité	-8208
▁aiiez	-8209
▁bosse	-8210
▁bride	-8211
▁crash	-8212
▁dormi	-8213
▁fancy	-8214
▁foule	-8215
▁geste	-8216
▁kinda	-8217
▁kuman	-8218
▁loyal	-8219
▁lundi	-8220
▁manny	-8221
▁manqu	-8222
▁marin	-8223
▁monty	-8224
▁plast	-8225
▁shing	-8226
▁songs	-8227
▁soupe	-8228
▁tears	-8229
▁usual	-8230
▁celles	-8231
▁cinglé	-8232
▁collèg	-8233
▁credit	-8234
▁dealer	-8235
▁easily	-8236
▁favour	-8237
▁fought	-8238
▁headed	-8239
▁invite	-8240
▁joyeux	-8241
▁maudit	-8242
▁minuit	-8243
▁pieces	-8244
▁pignon	-8245
▁pounds	-8246
▁preach	-8247
▁saving	-8248
▁schedu	-8249
▁switch	-8250
▁vienne	-8251
▁volant	-8252
entendez	-8253
ignorais	-8254
échapper	-8255
▁antonio	-8256
▁ashamed	-8257
▁capital	-8258
▁century	-8259
▁chasing	-8260
▁célèbre	-8261
▁emotion	-8262
▁growing	-8263
▁hoshino	-8264
▁jealous	-8265
▁laisses	-8266
▁magasin	-8267
▁partons	-8268
▁pensait	-8269
▁putains	-8270
▁reports	-8271
▁sanchez	-8272
▁showing	-8273
▁touched	-8274
▁vehicle	-8275
▁accepter	-8276
▁biblioth	-8277
▁confused	-8278
▁directly	-8279
▁location	-8280
▁murderer	-8281
▁occasion	-8282
▁progress	-8283
▁property	-8284
▁republic	-8285
▁seraient	-8286
▁victoria	-8287
▁cleveland	-8288
▁opération	-8289
▁conditions	-8290
▁appointment	-8291
▁surveillance	-8292
bid	-8293
dis	-8294
gal	-8295
hib	-8296
loy	-8297
ona	-8298
oût	-8299
pri	-8300
two	-8301
agua	-8302
bury	-8303
cies	-8304
itre	-8305
opes	-8306
quar	-8307
▁bêt	-8308
▁lci	-8309
▁map	-8310
▁oil	-8311
▁ped	-8312
▁pié	-8313
▁ski	-8314
▁tai	-8315
alier	-8316
areil	-8317
erton	-8318
organ	-8319
usted	-8320
▁cant	-8321
▁clau	-8322
▁cole	-8323
▁couv	-8324
▁crev	-8325
▁defe	-8326
▁flor	-8327
▁gill	-8328
▁hais	-8329
▁heck	-8330
▁monn	-8331
▁mous	-8332
▁pred	-8333
▁saul	-8334
▁saut	-8335
▁tied	-8336
▁wise	-8337
avance	-8338
father	-8339
ington	-8340
▁allés	-8341
▁aside	-8342
▁atmos	-8343
▁avert	-8344
▁baise	-8345
▁chale	-8346
▁chaos	-8347
▁ewell	-8348
▁fella	-8349
▁files	-8350
▁fonce	-8351
▁idéal	-8352
▁insul	-8353
▁liver	-8354
▁lourd	-8355
▁magie	-8356
▁nager	-8357
▁proph	-8358
▁rater	-8359
▁rocks	-8360
▁scrat	-8361
▁shock	-8362
▁solid	-8363
▁sucre	-8364
▁tract	-8365
▁tâche	-8366
▁vache	-8367
▁venge	-8368
adresse	-8369
onnable	-8370
▁advice	-8371
▁avenir	-8372
▁bottle	-8373
▁career	-8374
▁damage	-8375
▁desire	-8376
▁déclar	-8377
▁ending	-8378
▁horses	-8379
▁lookin	-8380
▁melman	-8381
▁prêtre	-8382
▁settle	-8383
▁souris	-8384
▁trevor	-8385
▁wimble	-8386
issement	-8387
▁billets	-8388
▁cherché	-8389
▁ennemis	-8390
▁foreman	-8391
▁maisons	-8392
▁maladie	-8393
▁murdock	-8394
▁nerveux	-8395
▁proceed	-8396
▁reached	-8397
▁royaume	-8398
▁traffic	-8399
▁useless	-8400
▁amérique	-8401
▁auraient	-8402
▁bleeding	-8403
▁gangster	-8404
▁journaux	-8405
▁material	-8406
▁premiers	-8407
▁prisoner	-8408
▁précieux	-8409
▁recommen	-8410
▁saturday	-8411
▁students	-8412
▁wherever	-8413
importance	-8414
▁authority	-8415
▁bouteille	-8416
▁compliqué	-8417
▁laisserai	-8418
▁leningrad	-8419
▁political	-8420
▁principal	-8421
▁sensation	-8422
▁wimbledon	-8423
▁également	-8424
▁connection	-8425
▁partenaire	-8426
▁population	-8427
▁opportunity	-8428
▁circumstances	-8429
ýd	-8430
auc	-8431
ban	-8432
har	-8433
ril	-8434
ueu	-8435
uez	-8436
ull	-8437
▁éd	-8438
!...	-8439
appy	-8440
atch	-8441
avec	-8442
feld	-8443
ighs	-8444
iven	-8445
race	-8446
they	-8447
town	-8448
uels	-8449
▁gil	-8450
▁lud	-8451
▁qin	-8452
▁vil	-8453
aveur	-8454
craft	-8455
dreds	-8456
erait	-8457
oudre	-8458
rimer	-8459
▁allo	-8460
▁astr	-8461
▁bush	-8462
▁clas	-8463
▁durs	-8464
▁fest	-8465
▁gear	-8466
▁hamb	-8467
▁labo	-8468
▁lind	-8469
▁paco	-8470
▁souc	-8471
▁taré	-8472
▁worm	-8473
aining	-8474
unning	-8475
utions	-8476
▁assur	-8477
▁avoid	-8478
▁aware	-8479
▁blank	-8480
▁blond	-8481
▁bluff	-8482
▁chall	-8483
▁coach	-8484
▁couch	-8485
▁false	-8486
▁flash	-8487
▁giant	-8488
▁hôtel	-8489
▁johan	-8490
▁larry	-8491
▁madam	-8492
▁merry	-8493
▁nadia	-8494
▁oppos	-8495
▁pique	-8496
▁pâris	-8497
▁requi	-8498
▁retir	-8499
▁répét	-8500
▁terms	-8501
▁wendy	-8502
ompagne	-8503
pecteur	-8504
▁assign	-8505
▁audrey	-8506
▁batter	-8507
▁boring	-8508
▁burton	-8509
▁coincé	-8510
▁couler	-8511
▁dallas	-8512
▁dispos	-8513
▁décide	-8514
▁empire	-8515
▁habite	-8516
▁imagin	-8517
▁justin	-8518
▁manuel	-8519
▁marine	-8520
▁mariés	-8521
▁origin	-8522
▁parker	-8523
▁rumson	-8524
▁réplic	-8525
▁signed	-8526
▁silver	-8527
▁tempor	-8528
▁verras	-8529
▁vivait	-8530
▁waited	-8531
▁winter	-8532
▁études	-8533
approche	-8534
humanité	-8535
iquement	-8536
onnement	-8537
▁advance	-8538
▁affront	-8539
▁bullets	-8540
▁chapeau	-8541
▁constru	-8542
▁counter	-8543
▁culture	-8544
▁depends	-8545
▁deviner	-8546
▁emmener	-8547
▁espagne	-8548
▁faisant	-8549
▁letters	-8550
▁records	-8551
▁rehears	-8552
▁suivant	-8553
▁vouliez	-8554
▁anderton	-8555
▁counting	-8556
▁dimanche	-8557
▁division	-8558
▁développ	-8559
▁endroits	-8560
▁medicine	-8561
▁physical	-8562
▁pokémons	-8563
▁retrouvé	-8564
▁sandwich	-8565
▁survived	-8566
▁trouvera	-8567
▁vacation	-8568
▁construit	-8569
▁jerusalem	-8570
▁jérusalem	-8571
▁puissance	-8572
▁someplace	-8573
▁appartient	-8574
▁eventually	-8575
▁totalement	-8576
▁débarrasser	-8577
▁grandmother	-8578
▁prisonniers	-8579
ln	-8580
oe	-8581
lic	-8582
nan	-8583
océ	-8584
oko	-8585
onf	-8586
via	-8587
aled	-8588
ario	-8589
good	-8590
inos	-8591
ints	-8592
lock	-8593
ocks	-8594
ping	-8595
rist	-8596
uate	-8597
▁cer	-8598
▁cil	-8599
▁goa	-8600
▁hér	-8601
activ	-8602
espér	-8603
hetic	-8604
iaque	-8605
inent	-8606
ontez	-8607
ungle	-8608
épice	-8609
▁babe	-8610
▁bouc	-8611
▁bury	-8612
▁dece	-8613
▁dill	-8614
▁duck	-8615
▁déce	-8616
▁fake	-8617
▁foss	-8618
▁gail	-8619
▁gonz	-8620
▁gout	-8621
▁japs	-8622
▁male	-8623
▁mall	-8624
▁tenu	-8625
▁thin	-8626
▁vier	-8627
▁wipe	-8628
atures	-8629
hommes	-8630
▁absur	-8631
▁alice	-8632
▁armed	-8633
▁attor	-8634
▁bains	-8635
▁brûlé	-8636
▁bucks	-8637
▁canon	-8638
▁cimet	-8639
▁facts	-8640
▁mener	-8641
▁miche	-8642
▁model	-8643
▁navré	-8644
▁pages	-8645
▁pilot	-8646
▁spare	-8647
▁stret	-8648
▁trees	-8649
arrière	-8650
iconque	-8651
▁agents	-8652
▁armées	-8653
▁brings	-8654
▁brûler	-8655
▁claire	-8656
▁consul	-8657
▁dawson	-8658
▁depend	-8659
▁essent	-8660
▁fesses	-8661
▁goldme	-8662
▁joueur	-8663
▁keller	-8664
▁loving	-8665
▁lèvres	-8666
▁manqué	-8667
▁offrir	-8668
▁rescue	-8669
▁région	-8670
▁samedi	-8671
▁screen	-8672
▁script	-8673
▁smells	-8674
▁useful	-8675
▁wishes	-8676
amérique	-8677
appareil	-8678
▁augment	-8679
▁comprom	-8680
▁connect	-8681
▁contest	-8682
▁courses	-8683
▁kaufman	-8684
▁monnaie	-8685
▁mystère	-8686
▁nourrir	-8687
▁parlais	-8688
▁prenons	-8689
▁protège	-8690
▁répondu	-8691
▁screwed	-8692
▁senator	-8693
▁sincère	-8694
▁tromper	-8695
▁témoins	-8696
▁victims	-8697
▁warning	-8698
▁workers	-8699
▁yelling	-8700
▁apporter	-8701
▁carrying	-8702
▁centrale	-8703
▁chocolat	-8704
▁hundreds	-8705
▁lunettes	-8706
▁portrait	-8707
▁pratique	-8708
▁résister	-8709
▁chocolate	-8710
▁contrôler	-8711
▁descendez	-8712
▁incapable	-8713
▁naturally	-8714
▁véritable	-8715
▁expérience	-8716
▁extraordin	-8717
▁prisonnier	-8718
▁destination	-8719
▁parfaitement	-8720
▁sérieusement	-8721
fo	-8722
die	-8723
pps	-8724
pro	-8725
sec	-8726
ués	-8727
▁lr	-8728
acte	-8729
aken	-8730
atta	-8731
bath	-8732
chus	-8733
ella	-8734
etic	-8735
ieur	-8736
iler	-8737
mons	-8738
oise	-8739
ooth	-8740
rica	-8741
riff	-8742
ssed	-8743
vere	-8744
▁apr	-8745
▁ath	-8746
▁jal	-8747
▁jig	-8748
▁mig	-8749
▁rek	-8750
▁rot	-8751
▁sak	-8752
▁yen	-8753
▁élé	-8754
agnes	-8755
aning	-8756
océan	-8757
onnie	-8758
orgia	-8759
vable	-8760
woman	-8761
▁adri	-8762
▁bann	-8763
▁brew	-8764
▁clou	-8765
▁cure	-8766
▁dict	-8767
▁dope	-8768
▁doué	-8769
▁epps	-8770
▁frag	-8771
▁fund	-8772
▁glor	-8773
▁hipp	-8774
▁jerk	-8775
▁nort	-8776
▁obst	-8777
▁puts	-8778
▁rats	-8779
▁tall	-8780
ateful	-8781
rement	-8782
▁album	-8783
▁alert	-8784
▁analy	-8785
▁aniki	-8786
▁chips	-8787
▁coast	-8788
▁crain	-8789
▁enorm	-8790
▁exerc	-8791
▁fabri	-8792
▁frust	-8793
▁jette	-8794
▁kerfa	-8795
▁micro	-8796
▁milli	-8797
▁navig	-8798
▁newsp	-8799
▁potes	-8800
▁prior	-8801
▁prize	-8802
▁pussy	-8803
▁refer	-8804
▁rough	-8805
▁scand	-8806
▁swing	-8807
▁vendu	-8808
lection	-8809
érieure	-8810
éroport	-8811
▁attent	-8812
▁attrap	-8813
▁buying	-8814
▁candid	-8815
▁canyon	-8816
▁compet	-8817
▁divine	-8818
▁encour	-8819
▁female	-8820
▁ginger	-8821
▁gâteau	-8822
▁higher	-8823
▁insist	-8824
▁lancer	-8825
▁launch	-8826
▁offert	-8827
▁parade	-8828
▁prepar	-8829
▁riches	-8830
▁senate	-8831
▁specif	-8832
▁surely	-8833
▁surren	-8834
▁tenter	-8835
▁troops	-8836
▁viande	-8837
▁vivent	-8838
apprécie	-8839
escalier	-8840
ompagner	-8841
▁anytime	-8842
▁awesome	-8843
▁diamant	-8844
▁faibles	-8845
▁jacques	-8846
▁medical	-8847
▁membres	-8848
▁négatif	-8849
▁opening	-8850
▁reasons	-8851
▁rentrez	-8852
▁réussir	-8853
▁saloper	-8854
▁soudain	-8855
▁vietnam	-8856
▁évident	-8857
▁adorable	-8858
▁cavalier	-8859
▁criminal	-8860
▁jonathan	-8861
▁officers	-8862
▁réfléchi	-8863
▁sometime	-8864
▁sorcière	-8865
▁allemands	-8866
▁kleinfeld	-8867
▁quiconque	-8868
▁secretary	-8869
▁traverser	-8870
▁voulaient	-8871
▁recommence	-8872
▁proposition	-8873
▁travaillait	-8874
dr	-8875
dad	-8876
irt	-8877
nie	-8878
roc	-8879
▁ak	-8880
...'	-8881
angé	-8882
eday	-8883
ensé	-8884
eror	-8885
hard	-8886
isés	-8887
nous	-8888
oncé	-8889
onse	-8890
onst	-8891
osen	-8892
witz	-8893
èche	-8894
ômes	-8895
▁bav	-8896
▁coc	-8897
▁spy	-8898
▁tac	-8899
▁vig	-8900
angle	-8901
forts	-8902
ipped	-8903
occup	-8904
ouest	-8905
▁atom	-8906
▁cerc	-8907
▁cere	-8908
▁crav	-8909
▁fasc	-8910
▁hack	-8911
▁kara	-8912
▁keen	-8913
▁paye	-8914
▁plas	-8915
▁pleu	-8916
▁rach	-8917
▁sons	-8918
▁tiss	-8919
▁toby	-8920
▁wolf	-8921
▁barbe	-8922
▁barry	-8923
▁bored	-8924
▁cahit	-8925
▁capac	-8926
▁chute	-8927
▁cruel	-8928
▁doigt	-8929
▁durer	-8930
▁envah	-8931
▁griev	-8932
▁mercy	-8933
▁parts	-8934
▁prier	-8935
▁rohan	-8936
▁saura	-8937
▁sénat	-8938
▁tenté	-8939
▁trial	-8940
▁école	-8941
▁étage	-8942
▁étant	-8943
▁backup	-8944
▁débile	-8945
▁foutez	-8946
▁fucker	-8947
▁gamble	-8948
▁harold	-8949
▁hearts	-8950
▁intend	-8951
▁jersey	-8952
▁legend	-8953
▁liston	-8954
▁livrer	-8955
▁masque	-8956
▁orient	-8957
▁policy	-8958
▁psychi	-8959
▁rafael	-8960
▁raised	-8961
▁rekall	-8962
▁remove	-8963
▁satell	-8964
▁shadow	-8965
▁siècle	-8966
▁thirty	-8967
arranger	-8968
mination	-8969
▁affreux	-8970
▁appears	-8971
▁bethany	-8972
▁curieux	-8973
▁emperor	-8974
▁enemies	-8975
▁england	-8976
▁foreign	-8977
▁grandes	-8978
▁helicop	-8979
▁hershey	-8980
▁kingdom	-8981
▁matrice	-8982
▁mayella	-8983
▁passera	-8984
▁poussez	-8985
▁remonte	-8986
▁respire	-8987
▁répéter	-8988
▁réserve	-8989
▁several	-8990
▁sherman	-8991
▁sortent	-8992
▁souffre	-8993
▁sources	-8994
▁victory	-8995
▁violent	-8996
▁betrayed	-8997
▁chambers	-8998
▁fenêtres	-8999
▁forgiven	-9000
▁messages	-9001
▁mistakes	-9002
▁nombreux	-9003
▁partager	-9004
▁promesse	-9005
▁received	-9006
▁shouting	-9007
▁confident	-9008
▁dernières	-9009
▁montagnes	-9010
▁permettre	-9011
▁prisoners	-9012
▁collection	-9013
▁experiment	-9014
▁facilement	-9015
▁reconnaiss	-9016
▁surveiller	-9017
▁disparaître	-9018
▁fantastique	-9019
▁neighborhood	-9020
▁responsabilité	-9021
ju	-9022
tv	-9023
abs	-9024
cts	-9025
lig	-9026
lls	-9027
uma	-9028
ýie	-9029
▁œu	-9030
abor	-9031
bing	-9032
etes	-9033
iest	-9034
inia	-9035
load	-9036
olos	-9037
orce	-9038
reau	-9039
sius	-9040
unts	-9041
yons	-9042
▁bug	-9043
▁cia	-9044
▁gor	-9045
▁kis	-9046
▁nik	-9047
▁pul	-9048
▁shr	-9049
▁tén	-9050
arbre	-9051
arded	-9052
inues	-9053
layer	-9054
riers	-9055
ulous	-9056
ôtres	-9057
▁bags	-9058
▁belt	-9059
▁dust	-9060
▁ence	-9061
▁inqu	-9062
▁lesb	-9063
▁linc	-9064
▁loki	-9065
▁prim	-9066
▁sylv	-9067
▁synd	-9068
▁tron	-9069
inform	-9070
issait	-9071
mptons	-9072
though	-9073
époque	-9074
▁ailes	-9075
▁anger	-9076
▁bonus	-9077
▁boxer	-9078
▁cheer	-9079
▁colon	-9080
▁crier	-9081
▁fetch	-9082
▁finds	-9083
▁fruit	-9084
▁gross	-9085
▁hyper	-9086
▁judas	-9087
▁kuato	-9088
▁loren	-9089
▁mustn	-9090
▁médec	-9091
▁nasty	-9092
▁panic	-9093
▁provo	-9094
▁ranch	-9095
▁simil	-9096
▁sourd	-9097
▁tryin	-9098
▁vague	-9099
assurer	-9100
pendant	-9101
raction	-9102
ription	-9103
▁aiment	-9104
▁analys	-9105
▁asgard	-9106
▁commis	-9107
▁couvre	-9108
▁coward	-9109
▁damned	-9110
▁desper	-9111
▁faveur	-9112
▁forbid	-9113
▁foutue	-9114
▁gather	-9115
▁jungle	-9116
▁soviet	-9117
▁vierge	-9118
▁villes	-9119
▁apprend	-9120
▁arrives	-9121
▁barbara	-9122
▁closing	-9123
▁destiny	-9124
▁doctors	-9125
▁efforts	-9126
▁enquête	-9127
▁fiancée	-9128
▁gardien	-9129
▁glasses	-9130
▁hauteur	-9131
▁healthy	-9132
▁lanning	-9133
▁majesté	-9134
▁neutral	-9135
▁passait	-9136
▁permett	-9137
▁respond	-9138
▁réparer	-9139
▁sheriff	-9140
▁someday	-9141
▁supplie	-9142
▁traiter	-9143
▁uniform	-9144
ascenseur	-9145
expliquer	-9146
▁arranger	-9147
▁attorney	-9148
▁chiottes	-9149
▁hamptons	-9150
▁marchand	-9151
▁matériel	-9152
▁poissons	-9153
▁precrime	-9154
▁profiter	-9155
▁standard	-9156
ordinateur	-9157
▁americans	-9158
▁attendent	-9159
▁découvrir	-9160
▁forcément	-9161
▁interrupt	-9162
▁lentement	-9163
▁militaire	-9164
▁mouvement	-9165
▁commercial	-9166
▁convaincre	-9167
▁sharkslayer	-9168
ix	-9169
uf	-9170
azz	-9171
eum	-9172
kee	-9173
spe	-9174
ued	-9175
who	-9176
anie	-9177
atte	-9178
blin	-9179
eaux	-9180
hier	-9181
illo	-9182
oken	-9183
uise	-9184
▁ana	-9185
▁bum	-9186
▁eau	-9187
▁ham	-9188
▁led	-9189
▁nur	-9190
▁odd	-9191
▁pes	-9192
▁syn	-9193
▁vag	-9194
▁yak	-9195
année	-9196
armes	-9197
belie	-9198
ereur	-9199
hardt	-9200
herbe	-9201
ibles	-9202
izard	-9203
▁anth	-9204
▁aper	-9205
▁cler	-9206
▁coût	-9207
▁cris	-9208
▁côte	-9209
▁froi	-9210
▁fume	-9211
▁glob	-9212
▁gond	-9213
▁heil	-9214
▁holl	-9215
▁ilpo	-9216
▁insc	-9217
▁intr	-9218
▁iook	-9219
▁jere	-9220
▁lous	-9221
▁nyah	-9222
▁oxyg	-9223
▁patt	-9224
▁pump	-9225
▁rode	-9226
▁spoi	-9227
▁trek	-9228
▁wave	-9229
▁wire	-9230
envoie	-9231
minist	-9232
otions	-9233
rition	-9234
scream	-9235
▁achet	-9236
▁buter	-9237
▁camar	-9238
▁chats	-9239
▁china	-9240
▁concl	-9241
▁croir	-9242
▁dames	-9243
▁dolly	-9244
▁douze	-9245
▁drift	-9246
▁drove	-9247
▁défin	-9248
▁démar	-9249
▁ernie	-9250
▁estim	-9251
▁fifty	-9252
▁filth	-9253
▁forth	-9254
▁forts	-9255
▁jelly	-9256
▁labor	-9257
▁marks	-9258
▁moque	-9259
▁parte	-9260
▁poppy	-9261
▁punch	-9262
▁rosen	-9263
▁réjou	-9264
▁satan	-9265
▁shots	-9266
▁union	-9267
▁vrais	-9268
▁affair	-9269
▁ancien	-9270
▁angels	-9271
▁appeal	-9272
▁auront	-9273
▁bouill	-9274
▁broder	-9275
▁calcul	-9276
▁canard	-9277
▁craint	-9278
▁crever	-9279
▁cétait	-9280
▁disiez	-9281
▁emmené	-9282
▁fasses	-9283
▁finale	-9284
▁heroes	-9285
▁larmes	-9286
▁likely	-9287
▁louise	-9288
▁monkey	-9289
▁moscou	-9290
▁ménage	-9291
▁nazare	-9292
▁nettoy	-9293
▁nigger	-9294
▁précis	-9295
▁punish	-9296
▁reçois	-9297
▁solide	-9298
▁tendre	-9299
▁terrib	-9300
▁vaisse	-9301
▁vander	-9302
attraper	-9303
occasion	-9304
▁airport	-9305
▁burning	-9306
▁cabinet	-9307
▁chevaux	-9308
▁couloir	-9309
▁cunning	-9310
▁funeral	-9311
▁indiens	-9312
▁landing	-9313
▁leaders	-9314
▁passent	-9315
▁pierrot	-9316
▁quarter	-9317
▁recover	-9318
▁reprend	-9319
▁restent	-9320
▁revenue	-9321
▁saurais	-9322
▁sparrow	-9323
▁systems	-9324
▁tension	-9325
▁theater	-9326
▁trapped	-9327
intention	-9328
uellement	-9329
▁bâtiment	-9330
▁chiffres	-9331
▁industry	-9332
▁nettoyer	-9333
▁research	-9334
▁revolver	-9335
▁scorpion	-9336
▁sensible	-9337
▁treasure	-9338
▁véhicule	-9339
▁abandonné	-9340
▁cimetière	-9341
▁countries	-9342
▁including	-9343
▁mauvaises	-9344
▁positions	-9345
▁retournez	-9346
▁tradition	-9347
▁vengeance	-9348
▁américains	-9349
▁management	-9350
▁revolution	-9351
▁connaissait	-9352
▁merveilleuse	-9353
▁réplicateurs	-9354
ja	-9355
oj	-9356
aul	-9357
aye	-9358
bby	-9359
gée	-9360
iis	-9361
ook	-9362
she	-9363
yes	-9364
zel	-9365
ador	-9366
amer	-9367
escl	-9368
héro	-9369
icho	-9370
ista	-9371
itif	-9372
leby	-9373
lieb	-9374
otic	-9375
sula	-9376
tein	-9377
érés	-9378
▁dal	-9379
▁dek	-9380
▁dol	-9381
▁eli	-9382
▁ens	-9383
▁gin	-9384
▁ite	-9385
▁nin	-9386
▁raj	-9387
▁tat	-9388
▁unf	-9389
▁unh	-9390
abrus	-9391
aghet	-9392
amuse	-9393
arrêt	-9394
atter	-9395
attle	-9396
ching	-9397
istic	-9398
ourse	-9399
▁assi	-9400
▁bagn	-9401
▁cité	-9402
▁célé	-9403
▁furi	-9404
▁hart	-9405
▁harv	-9406
▁kiii	-9407
▁lamb	-9408
▁lanc	-9409
▁lane	-9410
▁mign	-9411
▁môme	-9412
▁nove	-9413
▁quot	-9414
▁rear	-9415
▁rebe	-9416
▁reck	-9417
▁ridd	-9418
▁rond	-9419
▁réve	-9420
▁sung	-9421
▁task	-9422
▁vire	-9423
▁vise	-9424
▁whit	-9425
▁yard	-9426
▁́est	-9427
andalf	-9428
angers	-9429
charge	-9430
icieux	-9431
oignez	-9432
ursday	-9433
▁alarm	-9434
▁await	-9435
▁brisé	-9436
▁détru	-9437
▁gluck	-9438
▁hills	-9439
▁lover	-9440
▁manip	-9441
▁moves	-9442
▁nanas	-9443
▁nommé	-9444
▁nuits	-9445
▁ouest	-9446
▁paire	-9447
▁plays	-9448
▁pound	-9449
▁rusty	-9450
▁tenue	-9451
▁tower	-9452
▁youth	-9453
ailable	-9454
leterre	-9455
▁africa	-9456
▁albert	-9457
▁alerte	-9458
▁anchor	-9459
▁armies	-9460
▁assume	-9461
▁chaise	-9462
▁cirque	-9463
▁design	-9464
▁divers	-9465
▁durant	-9466
▁entrée	-9467
▁forcer	-9468
▁fourth	-9469
▁goddam	-9470
▁gracie	-9471
▁humans	-9472
▁latest	-9473
▁mesure	-9474
▁mighty	-9475
▁mostly	-9476
▁négoci	-9477
▁refusé	-9478
▁romans	-9479
▁ronnie	-9480
▁season	-9481
▁sentez	-9482
▁sexual	-9483
▁shield	-9484
▁ursula	-9485
▁valise	-9486
▁vallée	-9487
▁verrez	-9488
▁voices	-9489
▁voyait	-9490
arrivera	-9491
chuckles	-9492
▁attract	-9493
▁attrape	-9494
▁cadavre	-9495
▁capture	-9496
▁chaleur	-9497
▁clôture	-9498
▁cochons	-9499
▁croyait	-9500
▁glabrus	-9501
▁heather	-9502
▁hitting	-9503
▁hobbits	-9504
▁install	-9505
▁italian	-9506
▁jericho	-9507
▁malheur	-9508
▁marshal	-9509
▁minimum	-9510
▁network	-9511
▁planned	-9512
▁proches	-9513
▁reposer	-9514
▁serving	-9515
▁smoking	-9516
▁spaghet	-9517
▁varinia	-9518
▁visible	-9519
ification	-9520
▁although	-9521
▁attraper	-9522
▁audience	-9523
▁bartleby	-9524
▁circonst	-9525
▁designed	-9526
▁elevator	-9527
▁exchange	-9528
▁gottlieb	-9529
▁grateful	-9530
▁honestly	-9531
▁imaginer	-9532
▁karaolos	-9533
▁prennent	-9534
▁shoulder	-9535
▁thursday	-9536
université	-9537
▁broderick	-9538
▁cependant	-9539
▁explosion	-9540
▁formation	-9541
▁innocents	-9542
▁mentioned	-9543
▁ministère	-9544
▁munitions	-9545
▁nutrition	-9546
▁renseigne	-9547
▁respecter	-9548
▁suffering	-9549
▁américaine	-9550
▁discussion	-9551
▁excellente	-9552
▁révolution	-9553
▁secrétaire	-9554
▁raisonnable	-9555
gl	-9556
éo	-9557
col	-9558
▁ýt	-9559
abri	-9560
acks	-9561
ahan	-9562
anim	-9563
bage	-9564
bler	-9565
fish	-9566
icia	-9567
isez	-9568
orah	-9569
éras	-9570
▁ail	-9571
▁blé	-9572
▁doo	-9573
▁dux	-9574
▁fee	-9575
▁hil	-9576
▁hog	-9577
▁jau	-9578
▁mol	-9579
▁row	-9580
▁sco	-9581
▁sie	-9582
▁sty	-9583
▁ves	-9584
▁wid	-9585
▁wil	-9586
allow	-9587
amène	-9588
chons	-9589
essai	-9590
gnant	-9591
idler	-9592
isses	-9593
onely	-9594
ottes	-9595
oupes	-9596
prits	-9597
reint	-9598
reuve	-9599
▁adam	-9600
▁agré	-9601
▁bars	-9602
▁blan	-9603
▁fart	-9604
▁flee	-9605
▁muay	-9606
▁nons	-9607
▁puzz	-9608
▁rage	-9609
▁rico	-9610
▁seek	-9611
▁sink	-9612
▁soif	-9613
▁ting	-9614
▁tube	-9615
▁unus	-9616
▁virt	-9617
chette	-9618
illage	-9619
mbered	-9620
nandez	-9621
ricité	-9622
sibles	-9623
érable	-9624
▁advis	-9625
▁cecil	-9626
▁effic	-9627
▁equal	-9628
▁equip	-9629
▁etait	-9630
▁fifth	-9631
▁gladi	-9632
▁gliss	-9633
▁grill	-9634
▁hates	-9635
▁mines	-9636
▁pleur	-9637
▁péché	-9638
▁rêver	-9639
▁sages	-9640
▁sneak	-9641
▁sonne	-9642
▁taire	-9643
▁veget	-9644
▁worms	-9645
▁épuis	-9646
ability	-9647
arrivée	-9648
avaient	-9649
▁blancs	-9650
▁causer	-9651
▁disque	-9652
▁distri	-9653
▁détest	-9654
▁effray	-9655
▁escort	-9656
▁espion	-9657
▁fiight	-9658
▁former	-9659
▁franch	-9660
▁guitar	-9661
▁hauser	-9662
▁idiote	-9663
▁jolies	-9664
▁jusque	-9665
▁lauren	-9666
▁libres	-9667
▁mewtwo	-9668
▁misère	-9669
▁pilote	-9670
▁rabbit	-9671
▁rounds	-9672
▁safety	-9673
▁shérif	-9674
▁sombre	-9675
▁sylvia	-9676
▁torrey	-9677
▁trente	-9678
▁trojan	-9679
▁venger	-9680
▁vieill	-9681
essayais	-9682
▁actions	-9683
▁actress	-9684
▁admiral	-9685
▁amusant	-9686
▁answers	-9687
▁atteint	-9688
▁carried	-9689
▁chicago	-9690
▁compass	-9691
▁curious	-9692
▁discute	-9693
▁failure	-9694
▁iooking	-9695
▁juanito	-9696
▁options	-9697
▁parlent	-9698
▁preuves	-9699
▁prevent	-9700
▁renvers	-9701
▁requins	-9702
▁ressens	-9703
▁romains	-9704
▁shooter	-9705
▁soutien	-9706
▁trigger	-9707
▁troupes	-9708
▁visiter	-9709
extérieur	-9710
▁achilles	-9711
▁aventure	-9712
▁delivery	-9713
▁devrions	-9714
▁enceinte	-9715
▁entirely	-9716
▁gluckman	-9717
▁governor	-9718
▁maintain	-9719
▁negative	-9720
▁pantalon	-9721
▁pathetic	-9722
▁plaisant	-9723
▁properly	-9724
▁remarque	-9725
▁remonter	-9726
▁renforts	-9727
▁sénateur	-9728
▁terribly	-9729
▁vanderge	-9730
▁écrivain	-9731
▁cauchemar	-9732
▁convaincu	-9733
▁impressed	-9734
▁pardonnez	-9735
▁statement	-9736
▁changement	-9737
▁importante	-9738
▁university	-9739
aa	-9740
▁ô	-9741
hem	-9742
him	-9743
hod	-9744
ike	-9745
iva	-9746
lim	-9747
lli	-9748
nat	-9749
oln	-9750
ped	-9751
raw	-9752
éte	-9753
▁râ	-9754
,...	-9755
agir	-9756
aked	-9757
atha	-9758
bbed	-9759
chet	-9760
enfu	-9761
gnon	-9762
hold	-9763
iais	-9764
igné	-9765
iper	-9766
look	-9767
odka	-9768
onei	-9769
oshi	-9770
rael	-9771
usch	-9772
éant	-9773
▁aah	-9774
▁alt	-9775
▁cog	-9776
▁crâ	-9777
▁fax	-9778
▁gav	-9779
▁lav	-9780
▁pee	-9781
▁pip	-9782
▁unc	-9783
aides	-9784
appar	-9785
assed	-9786
aviez	-9787
chest	-9788
enser	-9789
erver	-9790
ibald	-9791
ierre	-9792
ocier	-9793
ojung	-9794
ormes	-9795
▁balt	-9796
▁beep	-9797
▁bloc	-9798
▁clan	-9799
▁cran	-9800
▁gest	-9801
▁guts	-9802
▁hits	-9803
▁lass	-9804
▁luke	-9805
▁mard	-9806
▁mcdo	-9807
▁outf	-9808
▁perp	-9809
▁poul	-9810
▁poup	-9811
▁rede	-9812
▁scan	-9813
▁sets	-9814
▁sosa	-9815
▁tels	-9816
▁tien	-9817
▁vaud	-9818
▁wars	-9819
▁yuki	-9820
▁éter	-9821
,.....	-9822
assass	-9823
attent	-9824
idered	-9825
rapped	-9826
weight	-9827
▁argue	-9828
▁baker	-9829
▁boucl	-9830
▁camps	-9831
▁cases	-9832
▁conce	-9833
▁coûte	-9834
▁digne	-9835
▁délic	-9836
▁dérou	-9837
▁eaten	-9838
▁fever	-9839
▁fixed	-9840
▁gardé	-9841
▁grade	-9842
▁griff	-9843
▁géant	-9844
▁homes	-9845
▁juges	-9846
▁leçon	-9847
▁liter	-9848
▁loser	-9849
▁nurse	-9850
▁pills	-9851
▁poker	-9852
▁poule	-9853
▁septe	-9854
▁siège	-9855
▁staff	-9856
▁steps	-9857
▁sucks	-9858
▁tente	-9859
▁trash	-9860
▁wings	-9861
apprend	-9862
origine	-9863
oubliez	-9864
épouser	-9865
▁amount	-9866
▁border	-9867
▁chèque	-9868
▁croker	-9869
▁feriez	-9870
▁gloire	-9871
▁gondor	-9872
▁houses	-9873
▁knight	-9874
▁marisa	-9875
▁mirror	-9876
▁monica	-9877
▁montez	-9878
▁moulin	-9879
▁pensée	-9880
▁perdue	-9881
▁portée	-9882
▁remets	-9883
▁sauvet	-9884
▁secure	-9885
▁soeurs	-9886
▁speaks	-9887
▁strugg	-9888
▁taiwan	-9889
▁traite	-9890
▁traîne	-9891
▁éclair	-9892
aéroport	-9893
espérais	-9894
laughing	-9895
▁accepté	-9896
▁anciens	-9897
▁cameras	-9898
▁charges	-9899
▁charýie	-9900
▁cleaned	-9901
▁cochise	-9902
▁déconne	-9903
▁escaped	-9904
▁esprits	-9905
▁figures	-9906
▁germans	-9907
▁hunting	-9908
▁immense	-9909
▁johnson	-9910
▁library	-9911
▁lincoln	-9912
▁meneaux	-9913
▁occuper	-9914
▁période	-9915
▁sauvage	-9916
▁shining	-9917
▁soojung	-9918
▁traître	-9919
▁treated	-9920
▁whatyou	-9921
inquiéter	-9922
▁accueill	-9923
▁attacked	-9924
▁blessure	-9925
▁chansons	-9926
▁discover	-9927
▁dreaming	-9928
▁enormous	-9929
▁gracchus	-9930
▁grantham	-9931
▁massacre	-9932
▁oreilles	-9933
▁painting	-9934
▁pareille	-9935
▁respecte	-9936
▁specific	-9937
▁throwing	-9938
▁échapper	-9939
inspecteur	-9940
▁archibald	-9941
▁companies	-9942
▁corporate	-9943
▁infection	-9944
▁intention	-9945
▁naturelle	-9946
▁objection	-9947
▁reviendra	-9948
▁treatment	-9949
▁abandonner	-9950
▁assignment	-9951
▁fonctionne	-9952
▁kidnapping	-9953
▁malheureux	-9954
▁remembered	-9955
▁connaissais	-9956
▁commandement	-9957
▁circonstances	-9958
ua	-9959
bin	-9960
enl	-9961
got	-9962
gro	-9963
mic	-9964
obl	-9965
sia	-9966
uct	-9967
veu	-9968
▁ýý	-9969
?...	-9970
anya	-9971
born	-9972
chan	-9973
iled	-9974
lymp	-9975
ogue	-9976
udes	-9977
ueux	-9978
umer	-9979
▁cér	-9980
▁lip	-9981
▁rib	-9982
▁sap	-9983
▁tec	-9984
▁évé	-9985
▁œil	-9986
aises	-9987
aming	-9988
anges	-9989
attre	-9990
icted	-9991
ignol	-9992
mitri	-9993
offre	-9994
point	-9995
sière	-9996
stein	-9997
▁aies	-9998
▁arre	-9999
▁bail	-10000
▁bike	-10001
▁boit	-10002
▁boot	-10003
▁bref	-10004
▁chât	-10005
▁feli	-10006
▁hugh	-10007
▁joey	-10008
▁mask	-10009
▁myth	-10010
▁obey	-10011
▁pipe	-10012
▁poit	-10013
▁raff	-10014
▁recr	-10015
▁relâ	-10016
▁runs	-10017
▁sach	-10018
▁sûrs	-10019
▁tiny	-10020
ertain	-10021
explos	-10022
ighted	-10023
jamais	-10024
oeuvre	-10025
ointed	-10026
▁blast	-10027
▁brise	-10028
▁chain	-10029
▁chers	-10030
▁conte	-10031
▁costs	-10032
▁crown	-10033
▁diana	-10034
▁dough	-10035
▁dozen	-10036
▁fleet	-10037
▁fully	-10038
▁greek	-10039
▁joker	-10040
▁katya	-10041
▁lands	-10042
▁lousy	-10043
▁mummy	-10044
▁nazis	-10045
▁nucle	-10046
▁olymp	-10047
▁opera	-10048
▁owner	-10049
▁plage	-10050
▁poube	-10051
▁ramos	-10052
▁react	-10053
▁reich	-10054
▁roses	-10055
▁souls	-10056
▁tonio	-10057
▁value	-10058
▁vodka	-10059
atiques	-10060
enfants	-10061
▁amenez	-10062
▁assuré	-10063
▁atlant	-10064
▁behave	-10065
▁brains	-10066
▁chaîne	-10067
▁comput	-10068
▁denfer	-10069
▁emploi	-10070
▁handed	-10071
▁harris	-10072
▁hidden	-10073
▁iittle	-10074
▁insult	-10075
▁leland	-10076
▁lignes	-10077
▁loaded	-10078
▁modern	-10079
▁mordor	-10080
▁nightm	-10081
▁parier	-10082
▁perman	-10083
▁poulet	-10084
▁précog	-10085
▁result	-10086
▁riding	-10087
▁robber	-10088
▁récomp	-10089
▁réunis	-10090
▁sainte	-10091
▁served	-10092
▁silvia	-10093
▁sommet	-10094
▁stuart	-10095
▁terres	-10096
▁tireur	-10097
▁tracks	-10098
▁valent	-10099
▁valley	-10100
▁venant	-10101
▁voisin	-10102
▁économ	-10103
▁époque	-10104
uschwitz	-10105
▁ambrose	-10106
▁bagarre	-10107
▁baissez	-10108
▁bombing	-10109
▁caméras	-10110
▁challen	-10111
▁clearly	-10112
▁coionei	-10113
▁giorgia	-10114
▁greater	-10115
▁inquiet	-10116
▁lorenzo	-10117
▁marcell	-10118
▁murders	-10119
▁protest	-10120
▁préparé	-10121
▁raymond	-10122
▁remplir	-10123
▁restait	-10124
▁secteur	-10125
▁servant	-10126
▁succeed	-10127
▁théorie	-10128
▁théâtre	-10129
▁trained	-10130
▁unusual	-10131
▁utilisé	-10132
▁ventura	-10133
▁vérifie	-10134
▁articles	-10135
▁basement	-10136
▁calories	-10137
▁campaign	-10138
▁catholic	-10139
▁commerce	-10140
▁comporte	-10141
▁criminel	-10142
▁horseman	-10143
▁jennings	-10144
▁nazareth	-10145
▁nonsense	-10146
▁prévenir	-10147
▁romantic	-10148
▁souffrir	-10149
▁stranger	-10150
▁supplies	-10151
▁suspects	-10152
appellerai	-10153
▁confirmed	-10154
▁délicieux	-10155
▁effective	-10156
▁hernandez	-10157
▁printemps	-10158
▁conférence	-10159
▁considered	-10160
▁gouverneur	-10161
entraînement	-10162
▁coincidence	-10163
ià	-10164
ns	-10165
apé	-10166
atu	-10167
bou	-10168
ilé	-10169
mor	-10170
oli	-10171
pot	-10172
ria	-10173
▁ms	-10174
anna	-10175
athe	-10176
away	-10177
book	-10178
chés	-10179
iché	-10180
icut	-10181
inus	-10182
lins	-10183
mais	-10184
marc	-10185
ouvé	-10186
pris	-10187
quin	-10188
▁bij	-10189
▁bil	-10190
▁bét	-10191
▁féd	-10192
▁gim	-10193
▁gom	-10194
▁ing	-10195
▁pue	-10196
▁péd	-10197
▁soû	-10198
▁tut	-10199
,....	-10200
aries	-10201
aving	-10202
chard	-10203
devil	-10204
envie	-10205
isode	-10206
iture	-10207
known	-10208
ondra	-10209
ousse	-10210
phère	-10211
queur	-10212
▁asks	-10213
▁boul	-10214
▁boun	-10215
▁cake	-10216
▁crie	-10217
▁dawn	-10218
▁edge	-10219
▁eyed	-10220
▁fans	-10221
▁gras	-10222
▁jeté	-10223
▁ling	-10224
▁médi	-10225
▁navy	-10226
▁palm	-10227
▁pisc	-10228
▁poly	-10229
▁roth	-10230
▁scal	-10231
▁sett	-10232
▁tate	-10233
▁youn	-10234
▁élim	-10235
alarme	-10236
lement	-10237
nesday	-10238
rochez	-10239
éviter	-10240
▁abrut	-10241
▁badge	-10242
▁barak	-10243
▁brend	-10244
▁cérém	-10245
▁haine	-10246
▁jeudi	-10247
▁kills	-10248
▁leela	-10249
▁mardi	-10250
▁memor	-10251
▁mince	-10252
▁miser	-10253
▁mixed	-10254
▁nicar	-10255
▁occur	-10256
▁paras	-10257
▁peron	-10258
▁plomb	-10259
▁pompe	-10260
▁pride	-10261
▁repar	-10262
▁rooms	-10263
▁rover	-10264
▁savon	-10265
▁solve	-10266
▁suits	-10267
▁sweat	-10268
▁tapes	-10269
▁taule	-10270
▁théod	-10271
▁trunk	-10272
▁velas	-10273
▁voiià	-10274
▁étonn	-10275
cemment	-10276
essence	-10277
iendrai	-10278
ilities	-10279
sidence	-10280
ublique	-10281
▁active	-10282
▁admire	-10283
▁agency	-10284
▁alison	-10285
▁cambri	-10286
▁cancel	-10287
▁carson	-10288
▁chosen	-10289
▁dégueu	-10290
▁délire	-10291
▁déshab	-10292
▁emprun	-10293
▁excité	-10294
▁fermée	-10295
▁golden	-10296
▁graham	-10297
▁joking	-10298
▁julius	-10299
▁jérôme	-10300
▁kazama	-10301
▁landau	-10302
▁lemarc	-10303
▁lonely	-10304
▁miller	-10305
▁moscow	-10306
▁nights	-10307
▁nuages	-10308
▁permet	-10309
▁protég	-10310
▁radley	-10311
▁relève	-10312
▁remise	-10313
▁robbie	-10314
▁saches	-10315
▁saison	-10316
▁sheets	-10317
▁sniper	-10318
▁spoken	-10319
▁studio	-10320
▁verres	-10321
affaires	-10322
▁attempt	-10323
▁bagnole	-10324
▁barillo	-10325
▁bateaux	-10326
▁blessés	-10327
▁chimère	-10328
▁confess	-10329
▁confort	-10330
▁curtain	-10331
▁cutting	-10332
▁digital	-10333
▁domaine	-10334
▁extrême	-10335
▁federal	-10336
▁frankly	-10337
▁grandma	-10338
▁légende	-10339
▁malades	-10340
▁minable	-10341
▁moutons	-10342
▁offered	-10343
▁oubliez	-10344
▁portait	-10345
▁prostit	-10346
▁restera	-10347
▁rideaux	-10348
▁shondra	-10349
▁soigner	-10350
▁sommeil	-10351
▁unbelie	-10352
▁wanting	-10353
▁étudier	-10354
▁évacuer	-10355
abandonne	-10356
continues	-10357
existence	-10358
▁announce	-10359
▁clinique	-10360
▁diamonds	-10361
▁entrance	-10362
▁manifest	-10363
▁passport	-10364
▁poitrine	-10365
▁policier	-10366
▁psychiat	-10367
▁starving	-10368
▁survival	-10369
▁sérieuse	-10370
▁terminée	-10371
▁available	-10372
▁community	-10373
▁frontière	-10374
▁kidnapped	-10375
▁passeport	-10376
▁promotion	-10377
▁searching	-10378
▁sensitive	-10379
▁trouverai	-10380
▁wednesday	-10381
▁conseiller	-10382
▁construire	-10383
▁différente	-10384
▁goldmember	-10385
▁kilomètres	-10386
▁recherches	-10387
▁rencontrés	-10388
▁république	-10389
▁technology	-10390
▁vandergeld	-10391
▁environment	-10392
▁bibliothèque	-10393
▁professionnel	-10394
▁communications	-10395
.)	-10396
adé	-10397
euf	-10398
gué	-10399
hal	-10400
his	-10401
ida	-10402
nin	-10403
nés	-10404
opp	-10405
tee	-10406
tha	-10407
zar	-10408
▁".	-10409
▁mâ	-10410
cipl	-10411
iiie	-10412
jack	-10413
ogne	-10414
thia	-10415
vens	-10416
vera	-10417
viar	-10418
zard	-10419
étit	-10420
▁abd	-10421
▁anx	-10422
▁cic	-10423
▁déd	-10424
▁gif	-10425
▁glo	-10426
▁gut	-10427
▁hay	-10428
▁jad	-10429
▁jup	-10430
▁jur	-10431
▁obt	-10432
▁rhy	-10433
▁spr	-10434
▁tél	-10435
ablir	-10436
ailed	-10437
ainey	-10438
arian	-10439
aussi	-10440
ezing	-10441
iteur	-10442
mante	-10443
oming	-10444
roché	-10445
érant	-10446
▁agir	-10447
▁bant	-10448
▁chew	-10449
▁crus	-10450
▁créd	-10451
▁dram	-10452
▁eggs	-10453
▁etje	-10454
▁fare	-10455
▁iris	-10456
▁isol	-10457
▁jeep	-10458
▁lndi	-10459
▁loge	-10460
▁ping	-10461
▁posé	-10462
▁puce	-10463
▁rail	-10464
▁rush	-10465
▁récl	-10466
▁scén	-10467
▁trac	-10468
▁unde	-10469
▁unre	-10470
▁warr	-10471
anding	-10472
cademy	-10473
europe	-10474
italie	-10475
ources	-10476
resser	-10477
▁actes	-10478
▁beats	-10479
▁belly	-10480
▁bleue	-10481
▁bleus	-10482
▁bones	-10483
▁bêtes	-10484
▁ceint	-10485
▁conqu	-10486
▁craig	-10487
▁crève	-10488
▁deter	-10489
▁ellie	-10490
▁foods	-10491
▁foyer	-10492
▁frodo	-10493
▁julie	-10494
▁linda	-10495
▁mondi	-10496
▁mordu	-10497
▁mérit	-10498
▁métro	-10499
▁paran	-10500
▁puits	-10501
▁pêche	-10502
▁sable	-10503
▁scary	-10504
▁signs	-10505
▁spear	-10506
▁stays	-10507
▁steve	-10508
▁stiff	-10509
▁taper	-10510
▁vente	-10511
▁voila	-10512
▁whale	-10513
essayer	-10514
friends	-10515
irmière	-10516
nements	-10517
oreille	-10518
rouille	-10519
▁advers	-10520
▁agatha	-10521
▁astron	-10522
▁aurons	-10523
▁bourse	-10524
▁brutal	-10525
▁butter	-10526
▁canada	-10527
▁caviar	-10528
▁commod	-10529
▁couver	-10530
▁dekker	-10531
▁econom	-10532
▁exists	-10533
▁finest	-10534
▁forest	-10535
▁humble	-10536
▁judges	-10537
▁lesque	-10538
▁markus	-10539
▁martha	-10540
▁parton	-10541
▁pisser	-10542
▁rainey	-10543
▁resist	-10544
▁rideau	-10545
▁soucis	-10546
▁soyons	-10547
▁temper	-10548
▁voyant	-10549
attentat	-10550
ièrement	-10551
utiliser	-10552
▁abandon	-10553
▁academy	-10554
▁bagages	-10555
▁becomes	-10556
▁dealing	-10557
▁désirez	-10558
▁enjoyed	-10559
▁gandalf	-10560
▁garbage	-10561
▁grosses	-10562
▁herbert	-10563
▁knocked	-10564
▁magique	-10565
▁passing	-10566
▁procure	-10567
▁remains	-10568
▁sortira	-10569
▁stanley	-10570
▁swallow	-10571
▁traîner	-10572
▁trouvée	-10573
▁tuesday	-10574
▁velasco	-10575
▁wasting	-10576
▁winning	-10577
▁younger	-10578
▁allright	-10579
▁attitude	-10580
▁cardinal	-10581
▁charming	-10582
▁cleaning	-10583
▁darkness	-10584
▁dépêchez	-10585
▁espérons	-10586
▁fabulous	-10587
▁goodness	-10588
▁grievous	-10589
▁headquar	-10590
▁lawrence	-10591
▁marchera	-10592
▁monstres	-10593
▁offering	-10594
▁paradise	-10595
▁politics	-10596
▁précrime	-10597
▁préférer	-10598
▁response	-10599
▁résoudre	-10600
▁résultat	-10601
▁schedule	-10602
▁spéciale	-10603
▁touching	-10604
▁trouvent	-10605
▁advantage	-10606
▁auschwitz	-10607
▁eddington	-10608
▁guarantee	-10609
▁impatient	-10610
▁récemment	-10611
▁saloperie	-10612
▁satellite	-10613
▁vaisseaux	-10614
▁compassion	-10615
▁cunningham	-10616
▁expression	-10617
▁frightened	-10618
▁ordinateur	-10619
▁plaisantes	-10620
▁pourraient	-10621
▁terminator	-10622
▁internation	-10623
▁possibility	-10624
▁recommencer	-10625
▁reconnaître	-10626
ni	-10627
sp	-10628
aca	-10629
ako	-10630
alb	-10631
arc	-10632
cha	-10633
een	-10634
ilo	-10635
kaz	-10636
lor	-10637
oly	-10638
rup	-10639
tel	-10640
uin	-10641
wor	-10642
▁**	-10643
▁bâ	-10644
▁dw	-10645
agée	-10646
aman	-10647
amis	-10648
arts	-10649
aule	-10650
bard	-10651
fres	-10652
gues	-10653
ibat	-10654
leen	-10655
lson	-10656
mage	-10657
ppin	-10658
rina	-10659
road	-10660
rome	-10661
sect	-10662
ubis	-10663
ulia	-10664
èges	-10665
érie	-10666
▁bah	-10667
▁gib	-10668
▁leu	-10669
▁mmm	-10670
▁nèg	-10671
▁ske	-10672
▁sna	-10673
▁wer	-10674
▁wol	-10675
ambre	-10676
ittin	-10677
neill	-10678
ocrat	-10679
oster	-10680
raine	-10681
ribau	-10682
umbag	-10683
uming	-10684
worth	-10685
èbres	-10686
▁arts	-10687
▁aval	-10688
▁bene	-10689
▁blah	-10690
▁blaz	-10691
▁buff	-10692
▁cale	-10693
▁cape	-10694
▁diet	-10695
▁ench	-10696
▁greg	-10697
▁hend	-10698
▁info	-10699
▁juré	-10700
▁leto	-10701
▁lips	-10702
▁muad	-10703
▁mule	-10704
▁narr	-10705
▁opér	-10706
▁pend	-10707
▁poil	-10708
▁poll	-10709
▁quin	-10710
▁recy	-10711
▁supr	-10712
▁tits	-10713
▁vice	-10714
▁visa	-10715
▁weed	-10716
▁épée	-10717
enfuir	-10718
iciers	-10719
ishing	-10720
ouvant	-10721
pering	-10722
uments	-10723
▁blown	-10724
▁brace	-10725
▁coiff	-10726
▁copie	-10727
▁curse	-10728
▁décor	-10729
▁garth	-10730
▁horiz	-10731
▁hélas	-10732
▁initi	-10733
▁jetez	-10734
▁juger	-10735
▁lapin	-10736
▁lutte	-10737
▁remet	-10738
▁rings	-10739
▁sauce	-10740
▁sides	-10741
▁stade	-10742
▁stood	-10743
▁stops	-10744
▁tango	-10745
▁tanks	-10746
▁tasse	-10747
▁tiger	-10748
▁tires	-10749
▁umbre	-10750
▁vicki	-10751
▁vomir	-10752
▁états	-10753
itement	-10754
écoutes	-10755
▁aribau	-10756
▁babies	-10757
▁begbie	-10758
▁beside	-10759
▁bourne	-10760
▁calmez	-10761
▁cessez	-10762
▁chatte	-10763
▁chaude	-10764
▁cheers	-10765
▁circus	-10766
▁clones	-10767
▁device	-10768
▁domest	-10769
▁dragon	-10770
▁défaut	-10771
▁déguis	-10772
▁enlevé	-10773
▁events	-10774
▁exclus	-10775
▁exprès	-10776
▁fallen	-10777
▁franco	-10778
▁issues	-10779
▁lesson	-10780
▁libéré	-10781
▁limite	-10782
▁losers	-10783
▁mental	-10784
▁mobile	-10785
▁oiseau	-10786
▁pigeon	-10787
▁poésie	-10788
▁privée	-10789
▁produc	-10790
▁reckon	-10791
▁saigne	-10792
▁sortes	-10793
▁stroke	-10794
▁survie	-10795
▁thrown	-10796
▁timing	-10797
▁tucker	-10798
embrasse	-10799
empêcher	-10800
paravant	-10801
pourquoi	-10802
▁benefit	-10803
▁branche	-10804
▁cassius	-10805
▁chasser	-10806
▁culotte	-10807
▁cynthia	-10808
▁célibat	-10809
▁discipl	-10810
▁disques	-10811
▁distrib	-10812
▁emmerde	-10813
▁garrett	-10814
▁grandpa	-10815
▁halfway	-10816
▁lecture	-10817
▁matches	-10818
▁maurice	-10819
▁montrez	-10820
▁naturel	-10821
▁package	-10822
▁pousser	-10823
▁pouviez	-10824
▁quality	-10825
▁recevez	-10826
▁scratch	-10827
▁scumbag	-10828
▁serment	-10829
▁setting	-10830
▁urgence	-10831
▁utilise	-10832
▁échappé	-10833
▁abandonn	-10834
▁appropri	-10835
▁assholes	-10836
▁autorisé	-10837
▁charmant	-10838
▁christie	-10839
▁connerie	-10840
▁courrier	-10841
▁district	-10842
▁friendly	-10843
▁gardiens	-10844
▁guardian	-10845
▁hartigan	-10846
▁instance	-10847
▁miracles	-10848
▁nicholas	-10849
▁parfaite	-10850
▁plancher	-10851
▁rapporte	-10852
▁rapports	-10853
▁richards	-10854
▁semblant	-10855
▁spending	-10856
▁teaching	-10857
▁traverse	-10858
▁trouille	-10859
▁umbrella	-10860
▁affronter	-10861
▁astronaut	-10862
▁autrefois	-10863
▁centaines	-10864
▁chauffeur	-10865
▁cherchais	-10866
▁computers	-10867
▁daredevil	-10868
▁favourite	-10869
▁influence	-10870
▁interromp	-10871
▁protected	-10872
▁surrender	-10873
▁witnesses	-10874
▁california	-10875
▁confidence	-10876
▁couverture	-10877
▁helicopter	-10878
▁connaissent	-10879
▁entièrement	-10880
▁performance	-10881
▁underground	-10882
▁confirmation	-10883
▁constitution	-10884
▁investigation	-10885
hé	-10886
ado	-10887
ays	-10888
box	-10889
etz	-10890
hél	-10891
iov	-10892
ocy	-10893
rek	-10894
see	-10895
ski	-10896
sur	-10897
usé	-10898
was	-10899
wit	-10900
zer	-10901
âte	-10902
êre	-10903
▁iv	-10904
▁kg	-10905
...!	-10906
adys	-10907
arct	-10908
auds	-10909
chau	-10910
cing	-10911
exam	-10912
gies	-10913
hane	-10914
hatt	-10915
issy	-10916
kers	-10917
maid	-10918
pher	-10919
reme	-10920
sile	-10921
tras	-10922
ucky	-10923
unte	-10924
usse	-10925
yeah	-10926
▁doe	-10927
▁gum	-10928
▁hai	-10929
▁kin	-10930
▁maf	-10931
▁ned	-10932
▁noy	-10933
▁ohh	-10934
▁wre	-10935
▁yan	-10936
▁épr	-10937
annah	-10938
arder	-10939
brook	-10940
elaus	-10941
icent	-10942
oirés	-10943
orage	-10944
ormed	-10945
oston	-10946
while	-10947
équip	-10948
▁atre	-10949
▁aver	-10950
▁bisc	-10951
▁budd	-10952
▁cend	-10953
▁chop	-10954
▁clue	-10955
▁dial	-10956
▁erin	-10957
▁exha	-10958
▁flew	-10959
▁gram	-10960
▁iast	-10961
▁insp	-10962
▁irre	-10963
▁knee	-10964
▁kris	-10965
▁lara	-10966
▁lick	-10967
▁mats	-10968
▁plot	-10969
▁pong	-10970
▁rack	-10971
▁ranc	-10972
▁rein	-10973
▁sart	-10974
▁slim	-10975
▁spit	-10976
▁sulf	-10977
▁surn	-10978
▁tord	-10979
▁wing	-10980
▁xola	-10981
fresne	-10982
riques	-10983
▁achie	-10984
▁admir	-10985
▁angle	-10986
▁bronx	-10987
▁canal	-10988
▁cells	-10989
▁cheek	-10990
▁crâne	-10991
▁demon	-10992
▁depos	-10993
▁devra	-10994
▁felix	-10995
▁filet	-10996
▁fêter	-10997
▁greet	-10998
▁italy	-10999
▁jewel	-11000
▁juice	-11001
▁lieux	-11002
▁limit	-11003
▁ltaly	-11004
▁masse	-11005
▁minas	-11006
▁moore	-11007
▁phase	-11008
▁porco	-11009
▁purif	-11010
▁pénét	-11011
▁rejet	-11012
▁reten	-11013
▁ridge	-11014
▁réact	-11015
▁sauté	-11016
▁scoop	-11017
▁slipp	-11018
▁sloth	-11019
▁spell	-11020
▁vital	-11021
▁vitam	-11022
▁waves	-11023
▁élevé	-11024
accepte	-11025
érature	-11026
▁absent	-11027
▁accomp	-11028
▁aimait	-11029
▁altern	-11030
▁arabes	-11031
▁auprès	-11032
▁ballon	-11033
▁beaten	-11034
▁benjam	-11035
▁boston	-11036
▁broome	-11037
▁calmer	-11038
▁canapé	-11039
▁cassée	-11040
▁caused	-11041
▁censée	-11042
▁cities	-11043
▁compét	-11044
▁copper	-11045
▁corpse	-11046
▁durden	-11047
▁dégoût	-11048
▁détour	-11049
▁frites	-11050
▁froide	-11051
▁frozen	-11052
▁gamins	-11053
▁giulia	-11054
▁gladys	-11055
▁global	-11056
▁height	-11057
▁herman	-11058
▁jerome	-11059
▁jouait	-11060
▁keenan	-11061
▁lively	-11062
▁mangez	-11063
▁method	-11064
▁mouton	-11065
▁objets	-11066
▁permit	-11067
▁phrase	-11068
▁pourvu	-11069
▁prophe	-11070
▁puzzle	-11071
▁repren	-11072
▁régime	-11073
▁sacred	-11074
▁seriez	-11075
▁shrink	-11076
▁surger	-11077
▁tenais	-11078
▁therap	-11079
▁totale	-11080
▁toward	-11081
▁trompé	-11082
▁vessel	-11083
▁zidler	-11084
▁échoué	-11085
accepter	-11086
attaquer	-11087
empereur	-11088
▁absurde	-11089
▁applaud	-11090
▁assurer	-11091
▁attaqué	-11092
▁blessed	-11093
▁bêtises	-11094
▁chimera	-11095
▁déplace	-11096
▁détache	-11097
▁détends	-11098
▁entered	-11099
▁enterré	-11100
▁fiction	-11101
▁fromage	-11102
▁hostile	-11103
▁jupiter	-11104
▁merrill	-11105
▁meurent	-11106
▁monitor	-11107
▁nuclear	-11108
▁popular	-11109
▁provide	-11110
▁pulling	-11111
▁refused	-11112
▁ringing	-11113
▁réalisé	-11114
▁salaire	-11115
▁sentais	-11116
▁studied	-11117
▁sweetie	-11118
▁talents	-11119
▁théoden	-11120
▁timothy	-11121
▁touches	-11122
▁trompes	-11123
▁unhappy	-11124
▁unknown	-11125
▁ancienne	-11126
▁atreides	-11127
▁becoming	-11128
▁bradbury	-11129
▁brillant	-11130
▁broadway	-11131
▁cadavres	-11132
▁cellules	-11133
▁chanteur	-11134
▁contacts	-11135
▁creature	-11136
▁curtains	-11137
▁delambre	-11138
▁diamants	-11139
▁dufresne	-11140
▁décroche	-11141
▁exercise	-11142
▁flingues	-11143
▁function	-11144
▁générale	-11145
▁industri	-11146
▁lapierre	-11147
▁menelaus	-11148
▁ordinary	-11149
▁partners	-11150
▁plaindre	-11151
▁pregnant	-11152
▁promener	-11153
▁préfères	-11154
▁ressembl	-11155
▁réaliser	-11156
▁supporte	-11157
▁terminer	-11158
▁traversé	-11159
appartient	-11160
▁atteindre	-11161
▁australia	-11162
▁broadcast	-11163
▁cherchait	-11164
▁chevalier	-11165
▁conseille	-11166
▁contacter	-11167
▁equipment	-11168
▁harkonnen	-11169
▁marcellus	-11170
▁milliards	-11171
▁potential	-11172
▁pourrions	-11173
▁raccroche	-11174
▁réfléchis	-11175
▁satisfied	-11176
▁sauvetage	-11177
▁slaughter	-11178
▁spiritual	-11179
▁auparavant	-11180
▁confession	-11181
▁convention	-11182
▁individual	-11183
▁mysterious	-11184
▁perfection	-11185
▁réputation	-11186
▁surrounded	-11187
▁télévision	-11188
▁différentes	-11189
▁ordinateurs	-11190
▁replicators	-11191
▁technologie	-11192
▁terroristes	-11193
▁headquarters	-11194
▁unbelievable	-11195
!.	-11196
ee	-11197
lb	-11198
rs	-11199
ws	-11200
▁>	-11201
dan	-11202
icy	-11203
lou	-11204
mal	-11205
mez	-11206
ova	-11207
rov	-11208
sty	-11209
ône	-11210
▁cm	-11211
▁ss	-11212
****	-11213
arez	-11214
bble	-11215
bell	-11216
cake	-11217
gers	-11218
iera	-11219
mony	-11220
ribe	-11221
rimé	-11222
riss	-11223
ship	-11224
usée	-11225
wear	-11226
when	-11227
yard	-11228
çant	-11229
▁abe	-11230
▁dil	-11231
▁ful	-11232
▁lmp	-11233
▁nit	-11234
▁néo	-11235
▁sno	-11236
▁ved	-11237
▁wou	-11238
▁́ii	-11239
ageux	-11240
ariat	-11241
assez	-11242
cardo	-11243
eures	-11244
gasps	-11245
icier	-11246
llect	-11247
quons	-11248
sighs	-11249
usine	-11250
écris	-11251
▁aéri	-11252
▁chie	-11253
▁chlo	-11254
▁crée	-11255
▁deaf	-11256
▁deny	-11257
▁flet	-11258
▁foie	-11259
▁ghid	-11260
▁grec	-11261
▁grip	-11262
▁heii	-11263
▁josé	-11264
▁jume	-11265
▁lets	-11266
▁muse	-11267
▁noon	-11268
▁odds	-11269
▁purs	-11270
▁raid	-11271
▁ramp	-11272
▁saba	-11273
▁spat	-11274
▁stru	-11275
▁summ	-11276
▁tatt	-11277
▁trau	-11278
▁vase	-11279
▁volc	-11280
▁yell	-11281
aments	-11282
auriez	-11283
ennuie	-11284
hammed	-11285
icians	-11286
iciens	-11287
icules	-11288
offrir	-11289
udence	-11290
▁akiva	-11291
▁apply	-11292
▁asami	-11293
▁attir	-11294
▁ayant	-11295
▁beryl	-11296
▁birds	-11297
▁citoy	-11298
▁codes	-11299
▁confl	-11300
▁crush	-11301
▁domin	-11302
▁dutch	-11303
▁emmer	-11304
▁exige	-11305
▁exter	-11306
▁floyd	-11307
▁fries	-11308
▁glory	-11309
▁grass	-11310
▁ideal	-11311
▁ieave	-11312
▁incre	-11313
▁levez	-11314
▁matob	-11315
▁minus	-11316
▁motel	-11317
▁putes	-11318
▁rayon	-11319
▁signé	-11320
▁singe	-11321
▁sitar	-11322
▁toots	-11323
▁veste	-11324
▁virge	-11325
erreurs	-11326
underst	-11327
▁anéant	-11328
▁appell	-11329
▁begins	-11330
▁blocks	-11331
▁breast	-11332
▁brisée	-11333
▁callig	-11334
▁charme	-11335
▁clouds	-11336
▁connie	-11337
▁connue	-11338
▁coûter	-11339
▁curios	-11340
▁diabol	-11341
▁dépose	-11342
▁désire	-11343
▁estate	-11344
▁fisher	-11345
▁fumier	-11346
▁gamine	-11347
▁hannah	-11348
▁jaloux	-11349
▁madman	-11350
▁neighb	-11351
▁nicole	-11352
▁noires	-11353
▁nôtres	-11354
▁patrie	-11355
▁perrin	-11356
▁philip	-11357
▁plaire	-11358
▁poetry	-11359
▁pointe	-11360
▁portug	-11361
▁procéd	-11362
▁purple	-11363
▁recall	-11364
▁refuge	-11365
▁remett	-11366
▁repris	-11367
▁reward	-11368
▁rotten	-11369
▁ruined	-11370
▁répand	-11371
▁réseau	-11372
▁résist	-11373
▁shakes	-11374
▁smooth	-11375
▁spaces	-11376
▁stella	-11377
▁supply	-11378
▁tourné	-11379
▁triple	-11380
▁tuerai	-11381
▁turkey	-11382
▁venais	-11383
▁violée	-11384
▁warned	-11385
accident	-11386
seigneur	-11387
▁accepte	-11388
▁aliment	-11389
▁appelée	-11390
▁casinos	-11391
▁chaînes	-11392
▁citizen	-11393
▁combats	-11394
▁comptez	-11395
▁crossed	-11396
▁détruis	-11397
▁engines	-11398
▁furieux	-11399
▁guignol	-11400
▁hardest	-11401
▁horreur	-11402
▁inconnu	-11403
▁katrina	-11404
▁kicking	-11405
▁mariach	-11406
▁masbath	-11407
▁masturb	-11408
▁muscles	-11409
▁musical	-11410
▁pensées	-11411
▁pervers	-11412
▁product	-11413
▁regards	-11414
▁remarqu	-11415
▁risquer	-11416
▁staring	-11417
▁thunder	-11418
▁tournée	-11419
▁warrant	-11420
opération	-11421
▁agréable	-11422
▁aircraft	-11423
▁arranged	-11424
▁audition	-11425
▁believes	-11426
▁caroline	-11427
▁changera	-11428
▁condamné	-11429
▁contient	-11430
▁créature	-11431
▁demonstr	-11432
▁détermin	-11433
▁enjoying	-11434
▁exploser	-11435
▁fletcher	-11436
▁generous	-11437
▁ghidorah	-11438
▁guerrier	-11439
▁jugement	-11440
▁meantime	-11441
▁mercredi	-11442
▁mohammed	-11443
▁méchants	-11444
▁riccardo	-11445
▁réplique	-11446
▁savaient	-11447
▁stealing	-11448
▁trouvais	-11449
▁weakness	-11450
▁abandoned	-11451
▁charmante	-11452
▁classique	-11453
▁committee	-11454
▁documents	-11455
▁henderson	-11456
▁immediate	-11457
▁nightmare	-11458
▁poussière	-11459
▁rattraper	-11460
▁regardais	-11461
▁regretter	-11462
▁remplacer	-11463
▁compliment	-11464
▁entreprise	-11465
▁harkonnens	-11466
▁impressive	-11467
▁reasonable	-11468
▁territoire	-11469
▁évidemment	-11470
▁déclaration	-11471
▁embarrassing	-11472
▁propriétaire	-11473
▁scientifique	-11474
▁reconnaissance	-11475
aj	-11476
iy	-11477
aki	-11478
asi	-11479
até	-11480
bal	-11481
bul	-11482
cop	-11483
iat	-11484
lem	-11485
nic	-11486
pol	-11487
put	-11488
som	-11489
uch	-11490
uii	-11491
éli	-11492
▁ps	-11493
▁sv	-11494
aver	-11495
bels	-11496
bons	-11497
bott	-11498
elve	-11499
gett	-11500
hané	-11501
heim	-11502
hous	-11503
oirs	-11504
ords	-11505
ovie	-11506
resa	-11507
reté	-11508
rise	-11509
roch	-11510
rure	-11511
}...	-11512
èves	-11513
œurs	-11514
▁boh	-11515
▁bos	-11516
▁hip	-11517
▁jas	-11518
▁mia	-11519
▁még	-11520
▁pia	-11521
▁sue	-11522
▁tha	-11523
▁vén	-11524
▁yep	-11525
artez	-11526
atory	-11527
aurez	-11528
bonne	-11529
embar	-11530
icial	-11531
iétez	-11532
juana	-11533
maker	-11534
neath	-11535
onses	-11536
phere	-11537
pless	-11538
union	-11539
▁auto	-11540
▁bari	-11541
▁bret	-11542
▁decl	-11543
▁eats	-11544
▁fraî	-11545
▁gall	-11546
▁giov	-11547
▁iife	-11548
▁kate	-11549
▁loué	-11550
▁magn	-11551
▁orph	-11552
▁reef	-11553
▁rook	-11554
▁rosa	-11555
▁roug	-11556
▁ryth	-11557
▁sacs	-11558
▁seed	-11559
▁sein	-11560
▁shed	-11561
▁sire	-11562
▁smok	-11563
▁tand	-11564
▁tast	-11565
▁thus	-11566
▁toul	-11567
▁verd	-11568
▁walt	-11569
▁ware	-11570
▁wham	-11571
▁woke	-11572
course	-11573
endish	-11574
iscoll	-11575
ivered	-11576
oyable	-11577
quence	-11578
réides	-11579
unting	-11580
vement	-11581
▁accès	-11582
▁apres	-11583
▁bébés	-11584
▁caché	-11585
▁chuck	-11586
▁comic	-11587
▁crème	-11588
▁dalle	-11589
▁diner	-11590
▁docks	-11591
▁dodge	-11592
▁fallu	-11593
▁fumée	-11594
▁grecs	-11595
▁guère	-11596
▁ifyou	-11597
▁intim	-11598
▁juive	-11599
▁laser	-11600
▁lifet	-11601
▁léger	-11602
▁magne	-11603
▁mason	-11604
▁motor	-11605
▁mécan	-11606
▁nerfs	-11607
▁petey	-11608
▁posez	-11609
▁rapid	-11610
▁roark	-11611
▁réglé	-11612
▁shift	-11613
▁sniff	-11614
▁strip	-11615
▁sweep	-11616
▁trail	-11617
▁tremp	-11618
▁vargo	-11619
▁voies	-11620
estomac	-11621
landais	-11622
urgence	-11623
▁abruti	-11624
▁advise	-11625
▁affirm	-11626
▁anarch	-11627
▁archie	-11628
▁cattle	-11629
▁champs	-11630
▁colomb	-11631
▁cursed	-11632
▁detail	-11633
▁dumped	-11634
▁filthy	-11635
▁firing	-11636
▁greeks	-11637
▁hammer	-11638
▁harder	-11639
▁hunger	-11640
▁joined	-11641
▁kicked	-11642
▁kissed	-11643
▁kumite	-11644
▁kumité	-11645
▁manges	-11646
▁manner	-11647
▁misery	-11648
▁multip	-11649
▁muslim	-11650
▁pattes	-11651
▁poudre	-11652
▁poupée	-11653
▁prouve	-11654
▁quotid	-11655
▁recule	-11656
▁rupert	-11657
▁réserv	-11658
▁saurai	-11659
▁scotch	-11660
▁shared	-11661
▁signes	-11662
▁tirith	-11663
▁tombes	-11664
▁twelve	-11665
▁visual	-11666
▁witwer	-11667
apporter	-11668
explique	-11669
édiction	-11670
▁absence	-11671
▁bantams	-11672
▁begging	-11673
▁blesser	-11674
▁bouffer	-11675
▁chariot	-11676
▁coincer	-11677
▁corresp	-11678
▁counsel	-11679
▁cravate	-11680
▁diriger	-11681
▁dreamed	-11682
▁feeding	-11683
▁georges	-11684
▁grandir	-11685
▁granted	-11686
▁hubbard	-11687
▁liaison	-11688
▁liquide	-11689
▁masters	-11690
▁moteurs	-11691
▁normale	-11692
▁painted	-11693
▁pareils	-11694
▁quittez	-11695
▁restant	-11696
▁siècles	-11697
▁spectac	-11698
▁squeeze	-11699
▁superst	-11700
▁tableau	-11701
▁traitor	-11702
▁voudrez	-11703
▁wakhane	-11704
▁wakhané	-11705
▁wallaby	-11706
▁épouser	-11707
▁étoiles	-11708
éducation	-11709
▁allaient	-11710
▁baseball	-11711
▁brewster	-11712
▁cercueil	-11713
▁complain	-11714
▁describe	-11715
▁driscoll	-11716
▁fatiguée	-11717
▁laissons	-11718
▁monsters	-11719
▁movement	-11720
▁négocier	-11721
▁official	-11722
▁peinture	-11723
▁principe	-11724
▁ramasser	-11725
▁rembours	-11726
▁renoncer	-11727
▁reprends	-11728
▁retourné	-11729
▁récupère	-11730
▁réponses	-11731
▁stations	-11732
▁villages	-11733
▁vérifiez	-11734
▁barnhardt	-11735
▁cardiaque	-11736
▁cavendish	-11737
▁challenge	-11738
▁courageux	-11739
▁créatures	-11740
▁cérémonie	-11741
▁devraient	-11742
▁démission	-11743
▁enchantée	-11744
▁happiness	-11745
▁inquiétez	-11746
▁magazines	-11747
▁messenger	-11748
▁nationale	-11749
▁nicaragua	-11750
▁regardant	-11751
▁résultats	-11752
▁satisfait	-11753
▁structure	-11754
accompagner	-11755
électricité	-11756
▁personnage	-11757
▁survivants	-11758
▁underneath	-11759
▁concentrate	-11760
▁practically	-11761
▁organisation	-11762
iu	-11763
sa	-11764
aio	-11765
aum	-11766
bow	-11767
cal	-11768
hop	-11769
hos	-11770
ibu	-11771
iri	-11772
oll	-11773
onu	-11774
ueh	-11775
upp	-11776
vés	-11777
xie	-11778
ôts	-11779
▁rô	-11780
adel	-11781
agés	-11782
ania	-11783
dson	-11784
fais	-11785
iels	-11786
keys	-11787
roll	-11788
roph	-11789
ston	-11790
vich	-11791
étés	-11792
▁asc	-11793
▁asp	-11794
▁ego	-11795
▁eld	-11796
▁hir	-11797
▁kev	-11798
▁svp	-11799
▁unt	-11800
▁vel	-11801
▁vél	-11802
ading	-11803
assée	-11804
avoue	-11805
blanc	-11806
chios	-11807
iable	-11808
icide	-11809
illac	-11810
inner	-11811
leine	-11812
loved	-11813
mblée	-11814
nison	-11815
ocyte	-11816
ports	-11817
quant	-11818
uries	-11819
zaine	-11820
écout	-11821
▁acts	-11822
▁argu	-11823
▁beds	-11824
▁bros	-11825
▁brus	-11826
▁céré	-11827
▁doom	-11828
▁ease	-11829
▁feux	-11830
▁fisk	-11831
▁fuel	-11832
▁furn	-11833
▁gatt	-11834
▁guér	-11835
▁hail	-11836
▁inch	-11837
▁infe	-11838
▁lads	-11839
▁levé	-11840
▁lino	-11841
▁maqu	-11842
▁mcgo	-11843
▁moth	-11844
▁nest	-11845
▁pent	-11846
▁perf	-11847
▁prad	-11848
▁pyle	-11849
▁péch	-11850
▁salt	-11851
▁seth	-11852
▁stal	-11853
▁taux	-11854
▁trem	-11855
▁tune	-11856
▁vega	-11857
▁yueh	-11858
▁épar	-11859
active	-11860
engage	-11861
illing	-11862
mption	-11863
optère	-11864
resses	-11865
▁annie	-11866
▁armor	-11867
▁batte	-11868
▁brute	-11869
▁buvez	-11870
▁cable	-11871
▁carré	-11872
▁cried	-11873
▁câble	-11874
▁daily	-11875
▁decor	-11876
▁entry	-11877
▁fried	-11878
▁greed	-11879
▁hated	-11880
▁infos	-11881
▁inspe	-11882
▁jason	-11883
▁jouez	-11884
▁kinds	-11885
▁loups	-11886
▁mexic	-11887
▁nôtre	-11888
▁polon	-11889
▁pourb	-11890
▁périm	-11891
▁raped	-11892
▁reese	-11893
▁sayin	-11894
▁sends	-11895
▁spark	-11896
▁squir	-11897
▁steel	-11898
▁timmy	-11899
▁title	-11900
▁tooth	-11901
▁trahi	-11902
▁vends	-11903
▁widow	-11904
▁advent	-11905
▁allais	-11906
▁bernad	-11907
▁bijoux	-11908
▁bombes	-11909
▁cartel	-11910
▁causes	-11911
▁comité	-11912
▁cordes	-11913
▁desole	-11914
▁discut	-11915
▁donnée	-11916
▁décoll	-11917
▁découv	-11918
▁désast	-11919
▁explan	-11920
▁feffer	-11921
▁frodon	-11922
▁fusils	-11923
▁grotte	-11924
▁handic	-11925
▁highly	-11926
▁illust	-11927
▁jumped	-11928
▁madrid	-11929
▁manche	-11930
▁manusc	-11931
▁mechan	-11932
▁module	-11933
▁modèle	-11934
▁morale	-11935
▁nobles	-11936
▁outfit	-11937
▁oxygen	-11938
▁pourri	-11939
▁prenne	-11940
▁presid	-11941
▁proced	-11942
▁puisqu	-11943
▁resign	-11944
▁risqué	-11945
▁rocket	-11946
▁rubber	-11947
▁shirts	-11948
▁signor	-11949
▁souper	-11950
▁stands	-11951
▁steady	-11952
▁symbol	-11953
▁tables	-11954
▁taisez	-11955
▁tombés	-11956
▁verrou	-11957
immeuble	-11958
▁achille	-11959
▁actrice	-11960
▁annonce	-11961
▁assault	-11962
▁attirer	-11963
▁bariilo	-11964
▁beating	-11965
▁billion	-11966
▁blagues	-11967
▁chamber	-11968
▁consomm	-11969
▁devenus	-11970
▁disease	-11971
▁dégagez	-11972
▁francis	-11973
▁grabbed	-11974
▁jordana	-11975
▁leading	-11976
▁leblanc	-11977
▁légions	-11978
▁massive	-11979
▁missile	-11980
▁mothers	-11981
▁oiseaux	-11982
▁pacific	-11983
▁passant	-11984
▁picking	-11985
▁placard	-11986
▁players	-11987
▁possède	-11988
▁precise	-11989
▁proposé	-11990
▁prévenu	-11991
▁pushing	-11992
▁ramasse	-11993
▁refaire	-11994
▁require	-11995
▁ressort	-11996
▁robbery	-11997
▁rolling	-11998
▁settled	-11999
▁similar	-12000
▁spirits	-12001
▁supreme	-12002
▁terreur	-12003
▁vivante	-12004
▁accepted	-12005
▁atréides	-12006
▁cadillac	-12007
▁ceremony	-12008
▁cheating	-12009
▁connards	-12010
▁enfoirés	-12011
▁essayons	-12012
▁excitant	-12013
▁existent	-12014
▁families	-12015
▁farewell	-12016
▁fringues	-12017
▁helpless	-12018
▁mcgovern	-12019
▁missiles	-12020
▁natchios	-12021
▁palestin	-12022
▁particip	-12023
▁patricio	-12024
▁pleuvoir	-12025
▁released	-12026
▁réaction	-12027
▁separate	-12028
▁stopping	-12029
▁suitcase	-12030
▁suivante	-12031
▁abandonne	-12032
▁assassins	-12033
▁catherine	-12034
▁celebrate	-12035
▁conscious	-12036
▁decisions	-12037
▁delivered	-12038
▁demandent	-12039
▁driftwood	-12040
▁obsession	-12041
▁policiers	-12042
▁propriété	-12043
▁rapporter	-12044
▁rehearsal	-12045
▁règlement	-12046
▁réception	-12047
▁trouverez	-12048
▁calligraph	-12049
▁correspond	-12050
▁rapidement	-12051
▁reputation	-12052
▁reviendrai	-12053
▁travaillez	-12054
anniversaire	-12055
▁embarrassed	-12056
▁médicaments	-12057
▁particulier	-12058
▁transformer	-12059
▁britanniques	-12060
gm	-12061
rd	-12062
aks	-12063
aky	-12064
arn	-12065
avi	-12066
cat	-12067
ell	-12068
fti	-12069
gma	-12070
god	-12071
lés	-12072
nce	-12073
oix	-12074
ouc	-12075
pel	-12076
una	-12077
▁dv	-12078
▁kl	-12079
▁vl	-12080
agio	-12081
ands	-12082
anes	-12083
augh	-12084
brer	-12085
chad	-12086
colm	-12087
fire	-12088
grim	-12089
hest	-12090
igma	-12091
imen	-12092
issi	-12093
ivre	-12094
kind	-12095
lera	-12096
lers	-12097
mate	-12098
nera	-12099
oral	-12100
pass	-12101
ties	-12102
urai	-12103
ural	-12104
▁dot	-12105
▁dub	-12106
▁fug	-12107
▁hak	-12108
▁kel	-12109
▁leo	-12110
▁mcg	-12111
▁nek	-12112
▁née	-12113
▁pav	-12114
▁rag	-12115
▁roc	-12116
▁sic	-12117
▁wag	-12118
▁wes	-12119
▁zer	-12120
enson	-12121
etite	-12122
icien	-12123
intég	-12124
lines	-12125
lotte	-12126
magne	-12127
obile	-12128
oient	-12129
onger	-12130
orius	-12131
osing	-12132
rigue	-12133
shine	-12134
stick	-12135
uable	-12136
ucted	-12137
▁abst	-12138
▁bump	-12139
▁buzz	-12140
▁cats	-12141
▁cogn	-12142
▁déch	-12143
▁déja	-12144
▁fion	-12145
▁gosh	-12146
▁gour	-12147
▁guer	-12148
▁hast	-12149
▁hâte	-12150
▁jane	-12151
▁june	-12152
▁lend	-12153
▁lien	-12154
▁madd	-12155
▁math	-12156
▁palp	-12157
▁pari	-12158
▁préd	-12159
▁rade	-12160
▁radi	-12161
▁rape	-12162
▁reth	-12163
▁sins	-12164
▁situ	-12165
▁spin	-12166
▁tari	-12167
▁tone	-12168
▁vest	-12169
▁wors	-12170
▁yang	-12171
▁zomb	-12172
adémie	-12173
amener	-12174
expéri	-12175
indust	-12176
keeper	-12177
ouseau	-12178
phones	-12179
rolast	-12180
ènerai	-12181
▁abatt	-12182
▁anony	-12183
▁apple	-12184
▁artoo	-12185
▁betty	-12186
▁bidon	-12187
▁bingo	-12188
▁boots	-12189
▁boris	-12190
▁bucky	-12191
▁caill	-12192
▁cease	-12193
▁chine	-12194
▁chrét	-12195
▁crook	-12196
▁cyrus	-12197
▁drank	-12198
▁draps	-12199
▁délit	-12200
▁ellen	-12201
▁envis	-12202
▁fâché	-12203
▁globe	-12204
▁grief	-12205
▁holes	-12206
▁incon	-12207
▁indic	-12208
▁irrit	-12209
▁jokes	-12210
▁legal	-12211
▁lloyd	-12212
▁lâché	-12213
▁metal	-12214
▁mewes	-12215
▁mitch	-12216
▁moche	-12217
▁morty	-12218
▁musée	-12219
▁mères	-12220
▁neill	-12221
▁novel	-12222
▁nuclé	-12223
▁nygma	-12224
▁objet	-12225
▁print	-12226
▁ravie	-12227
▁resul	-12228
▁sabot	-12229
▁serré	-12230
▁soins	-12231
▁stiii	-12232
▁subst	-12233
▁talks	-12234
▁tapis	-12235
▁tonho	-12236
▁tuant	-12237
▁tuera	-12238
▁veuve	-12239
▁villa	-12240
▁volée	-12241
▁votes	-12242
▁wagon	-12243
▁walks	-12244
▁whist	-12245
▁wines	-12246
▁écris	-12247
aimerai	-12248
igators	-12249
istinct	-12250
pective	-12251
▁amener	-12252
▁attach	-12253
▁bannon	-12254
▁behalf	-12255
▁bertha	-12256
▁billet	-12257
▁brandy	-12258
▁briser	-12259
▁caract	-12260
▁castle	-12261
▁censés	-12262
▁chicks	-12263
▁cloche	-12264
▁coffin	-12265
▁copies	-12266
▁counts	-12267
▁crédit	-12268
▁deeper	-12269
▁dormer	-12270
▁dérang	-12271
▁désesp	-12272
▁détail	-12273
▁endorm	-12274
▁fidèle	-12275
▁furent	-12276
▁gotham	-12277
▁goûter	-12278
▁graves	-12279
▁gâcher	-12280
▁heller	-12281
▁hooked	-12282
▁hudson	-12283
▁incons	-12284
▁jordan	-12285
▁jouais	-12286
▁landed	-12287
▁liquid	-12288
▁malibu	-12289
▁naught	-12290
▁obtenu	-12291
▁oeuvre	-12292
▁oracle	-12293
▁ordure	-12294
▁parfum	-12295
▁pognon	-12296
▁prises	-12297
▁précip	-12298
▁reaily	-12299
▁ripley	-12300
▁ruthie	-12301
▁réduit	-12302
▁salute	-12303
▁sample	-12304
▁sevent	-12305
▁staros	-12306
▁statue	-12307
▁séance	-12308
▁volcan	-12309
▁washed	-12310
▁wasted	-12311
▁waters	-12312
équipage	-12313
▁ability	-12314
▁arrangé	-12315
▁artiste	-12316
▁average	-12317
▁balader	-12318
▁beloved	-12319
▁blowing	-12320
▁candles	-12321
▁condamn	-12322
▁contain	-12323
▁cooking	-12324
▁corrupt	-12325
▁dégueul	-12326
▁déposer	-12327
▁emporté	-12328
▁enlevez	-12329
▁gentils	-12330
▁hamburg	-12331
▁interfe	-12332
▁italien	-12333
▁legions	-12334
▁liberty	-12335
▁logique	-12336
▁matière	-12337
▁mélange	-12338
▁occupez	-12339
▁offense	-12340
▁pattern	-12341
▁piscine	-12342
▁plateau	-12343
▁rassemb	-12344
▁reminds	-12345
▁rentres	-12346
▁sentine	-12347
▁squales	-12348
▁termine	-12349
▁témoign	-12350
▁voudras	-12351
▁vérifié	-12352
approcher	-12353
iellement	-12354
important	-12355
issements	-12356
restation	-12357
▁administ	-12358
▁aimerait	-12359
▁alliance	-12360
▁apportez	-12361
▁assiette	-12362
▁boutique	-12363
▁callahan	-12364
▁ceinture	-12365
▁chickens	-12366
▁climbing	-12367
▁clouseau	-12368
▁concours	-12369
▁contents	-12370
▁covering	-12371
▁daylight	-12372
▁discount	-12373
▁donnerai	-12374
▁dressing	-12375
▁fabrique	-12376
▁gatewood	-12377
▁humanity	-12378
▁identité	-12379
▁jeunesse	-12380
▁learning	-12381
▁normally	-12382
▁préviens	-12383
▁ralentis	-12384
▁reconstr	-12385
▁semblait	-12386
▁struggle	-12387
▁affection	-12388
▁assassiné	-12389
▁attendais	-12390
▁childhood	-12391
▁davantage	-12392
▁entertain	-12393
▁identifié	-12394
▁intellect	-12395
▁officiers	-12396
▁philosoph	-12397
▁reporting	-12398
▁ressentir	-12399
▁sartorius	-12400
▁shoulders	-12401
▁surprises	-12402
▁afterwards	-12403
▁californie	-12404
▁charrolast	-12405
▁possession	-12406
▁producteur	-12407
▁provisions	-12408
▁romantique	-12409
▁souffrance	-12410
▁corporation	-12411
▁forgiveness	-12412
▁grandfather	-12413
▁magnificent	-12414
▁personnalité	-12415
▁concentration	-12416
,,	-12417
oz	-12418
wa	-12419
ýy	-12420
▁`	-12421
cod	-12422
cor	-12423
cut	-12424
din	-12425
ggy	-12426
iew	-12427
neu	-12428
new	-12429
ocr	-12430
rel	-12431
zow	-12432
âts	-12433
çue	-12434
▁dy	-12435
▁ul	-12436
apes	-12437
atin	-12438
bait	-12439
enqu	-12440
etre	-12441
hern	-12442
hode	-12443
hole	-12444
ilds	-12445
llor	-12446
nait	-12447
osex	-12448
ower	-12449
pers	-12450
rene	-12451
shot	-12452
uine	-12453
uyer	-12454
vons	-12455
écri	-12456
élas	-12457
épar	-12458
érir	-12459
étez	-12460
▁ads	-12461
▁agg	-12462
▁bee	-12463
▁châ	-12464
▁elv	-12465
▁eue	-12466
▁gee	-12467
▁gou	-12468
▁kir	-12469
▁lig	-12470
▁lor	-12471
▁nid	-12472
▁vid	-12473
agedy	-12474
aring	-12475
chner	-12476
etait	-12477
hiver	-12478
icher	-12479
icing	-12480
odeur	-12481
ously	-12482
piece	-12483
relle	-12484
ucker	-12485
uleux	-12486
urité	-12487
water	-12488
▁acte	-12489
▁armé	-12490
▁chag	-12491
▁cogs	-12492
▁coma	-12493
▁dash	-12494
▁dirt	-12495
▁déçu	-12496
▁gonf	-12497
▁goon	-12498
▁josh	-12499
▁juin	-12500
▁kane	-12501
▁lack	-12502
▁ltal	-12503
▁murm	-12504
▁mêle	-12505
▁nina	-12506
▁oath	-12507
▁plug	-12508
▁porn	-12509
▁rand	-12510
▁rass	-12511
▁reno	-12512
▁snap	-12513
▁soum	-12514
▁tale	-12515
▁teen	-12516
▁tequ	-12517
▁text	-12518
▁tonn	-12519
▁vari	-12520
▁weýý	-12521
▁étre	-12522
▁ýike	-12523
allons	-12524
anceux	-12525
années	-12526
ashing	-12527
asions	-12528
burger	-12529
gument	-12530
idémie	-12531
invite	-12532
laughs	-12533
orique	-12534
▁accur	-12535
▁actor	-12536
▁aimée	-12537
▁annoy	-12538
▁appat	-12539
▁arabs	-12540
▁bague	-12541
▁bills	-12542
▁broom	-12543
▁cance	-12544
▁cared	-12545
▁cocks	-12546
▁congé	-12547
▁cries	-12548
▁darby	-12549
▁dates	-12550
▁démol	-12551
▁faced	-12552
▁fleur	-12553
▁fling	-12554
▁flood	-12555
▁gants	-12556
▁genou	-12557
▁holog	-12558
▁imper	-12559
▁irait	-12560
▁lasky	-12561
▁leads	-12562
▁lisez	-12563
▁missy	-12564
▁moine	-12565
▁mouse	-12566
▁moust	-12567
▁mufti	-12568
▁multi	-12569
▁musul	-12570
▁nikki	-12571
▁obser	-12572
▁orphe	-12573
▁patch	-12574
▁peach	-12575
▁pedro	-12576
▁pisse	-12577
▁porté	-12578
▁remis	-12579
▁régis	-12580
▁shave	-12581
▁shove	-12582
▁smash	-12583
▁snake	-12584
▁thick	-12585
▁tries	-12586
▁trump	-12587
▁upper	-12588
▁usine	-12589
▁vigil	-12590
▁whack	-12591
▁wives	-12592
▁yakov	-12593
▁êtres	-12594
amental	-12595
annonce	-12596
apporte	-12597
arrange	-12598
engager	-12599
interro	-12600
isément	-12601
ivement	-12602
vereaux	-12603
érieurs	-12604
▁achète	-12605
▁adorer	-12606
▁allume	-12607
▁arbres	-12608
▁bourré	-12609
▁brooks	-12610
▁bruits	-12611
▁burden	-12612
▁busted	-12613
▁carati	-12614
▁chains	-12615
▁collap	-12616
▁compar	-12617
▁conclu	-12618
▁confus	-12619
▁cotton	-12620
▁coupez	-12621
▁craign	-12622
▁deadly	-12623
▁dorsia	-12624
▁défait	-12625
▁défend	-12626
▁fairly	-12627
▁foryou	-12628
▁goutte	-12629
▁halluc	-12630
▁hangar	-12631
▁impost	-12632
▁infect	-12633
▁intent	-12634
▁intuit	-12635
▁jennif	-12636
▁lsland	-12637
▁lutter	-12638
▁maddox	-12639
▁marqué	-12640
▁meters	-12641
▁modest	-12642
▁museum	-12643
▁perdez	-12644
▁perdus	-12645
▁privil	-12646
▁protoc	-12647
▁quinze	-12648
▁ranger	-12649
▁recons	-12650
▁remark	-12651
▁remote	-12652
▁rented	-12653
▁rocher	-12654
▁réchau	-12655
▁salary	-12656
▁sester	-12657
▁sleepy	-12658
▁strict	-12659
▁sunset	-12660
▁telles	-12661
▁vraies	-12662
▁wealth	-12663
▁égouts	-12664
assassin	-12665
aughters	-12666
auraient	-12667
éternité	-12668
▁afrique	-12669
▁appréci	-12670
▁arrival	-12671
▁battent	-12672
▁besoins	-12673
▁blessée	-12674
▁charged	-12675
▁classic	-12676
▁dealers	-12677
▁dessert	-12678
▁dessins	-12679
▁dispute	-12680
▁drapeau	-12681
▁experts	-12682
▁fathers	-12683
▁fatigue	-12684
▁florida	-12685
▁gagnant	-12686
▁genuine	-12687
▁germany	-12688
▁glacier	-12689
▁goddess	-12690
▁holland	-12691
▁hostage	-12692
▁kissing	-12693
▁lessons	-12694
▁malcolm	-12695
▁mangent	-12696
▁mesures	-12697
▁mexique	-12698
▁moderne	-12699
▁ménélas	-12700
▁navires	-12701
▁operate	-12702
▁pilgrim	-12703
▁plaszow	-12704
▁poignée	-12705
▁prenait	-12706
▁précogs	-12707
▁quarant	-12708
▁rumeurs	-12709
▁saladin	-12710
▁serpent	-12711
▁solaris	-12712
▁stripes	-12713
▁suffira	-12714
▁surgery	-12715
▁séparer	-12716
▁tragedy	-12717
▁tronche	-12718
▁visages	-12719
▁visions	-12720
▁volunte	-12721
inquiètes	-12722
oublierai	-12723
▁airfield	-12724
▁appareil	-12725
▁attached	-12726
▁changent	-12727
▁civilian	-12728
▁deserves	-12729
▁disaster	-12730
▁downtown	-12731
▁eternity	-12732
▁fillette	-12733
▁football	-12734
▁homework	-12735
▁immeuble	-12736
▁inconnue	-12737
▁mignonne	-12738
▁médecins	-12739
▁opposite	-12740
▁parlerai	-12741
▁patients	-12742
▁préférée	-12743
▁rentrons	-12744
▁salopard	-12745
▁scénario	-12746
▁stronger	-12747
▁sunshine	-12748
▁superior	-12749
▁systèmes	-12750
▁troubles	-12751
▁agreement	-12752
▁argentine	-12753
▁attendons	-12754
▁briefcase	-12755
▁collègues	-12756
▁commandes	-12757
▁commencez	-12758
▁creatures	-12759
▁embrasser	-12760
▁faisaient	-12761
▁forbidden	-12762
▁guerriers	-12763
▁newspaper	-12764
▁occasions	-12765
▁pardonner	-12766
▁passagers	-12767
▁procureur	-12768
▁périmètre	-12769
▁recommend	-12770
▁regardait	-12771
▁reportage	-12772
▁sesterces	-12773
▁spaghetti	-12774
▁territory	-12775
▁trouveras	-12776
arrestation	-12777
imagination	-12778
▁atmosphere	-12779
▁attractive	-12780
▁bernadette	-12781
▁chancellor	-12782
▁disappoint	-12783
▁evidemment	-12784
▁excellence	-12785
▁génération	-12786
▁punishment	-12787
▁résistance	-12788
▁suspicious	-12789
▁connaissiez	-12790
▁electricity	-12791
▁explanation	-12792
▁extrêmement	-12793
▁journaliste	-12794
▁monseigneur	-12795
▁préférerais	-12796
▁ressemblait	-12797
▁championship	-12798
▁disappointed	-12799
▁intelligente	-12800
▁transmission	-12801
pé	-12802
uk	-12803
alo	-12804
atz	-12805
bra	-12806
eve	-12807
ffé	-12808
hao	-12809
irl	-12810
jer	-12811
lng	-12812
obi	-12813
oby	-12814
oen	-12815
psi	-12816
zed	-12817
êve	-12818
▁lm	-12819
▁oû	-12820
aban	-12821
aims	-12822
amus	-12823
anou	-12824
erto	-12825
gage	-12826
geur	-12827
iait	-12828
iber	-12829
iére	-12830
kazu	-12831
lait	-12832
oled	-12833
ondo	-12834
pant	-12835
pere	-12836
phir	-12837
raps	-12838
rees	-12839
rick	-12840
rong	-12841
tery	-12842
umed	-12843
umin	-12844
west	-12845
word	-12846
yers	-12847
èvre	-12848
édée	-12849
▁aig	-12850
▁alf	-12851
▁bin	-12852
▁dau	-12853
▁duo	-12854
▁eag	-12855
▁fag	-12856
▁flu	-12857
▁gus	-12858
▁hap	-12859
▁hes	-12860
▁oct	-12861
▁sha	-12862
▁tol	-12863
▁tuy	-12864
▁voc	-12865
▁́ai	-12866
apers	-12867
arres	-12868
aules	-12869
enait	-12870
exige	-12871
iches	-12872
isent	-12873
juste	-12874
oigné	-12875
ondre	-12876
order	-12877
ortal	-12878
ouche	-12879
parri	-12880
rants	-12881
rette	-12882
siers	-12883
verty	-12884
étage	-12885
étude	-12886
▁admi	-12887
▁alph	-12888
▁barg	-12889
▁beef	-12890
▁bees	-12891
▁boum	-12892
▁cabr	-12893
▁chol	-12894
▁cope	-12895
▁cout	-12896
▁cuba	-12897
▁drum	-12898
▁duel	-12899
▁empê	-12900
▁fass	-12901
▁firm	-12902
▁fits	-12903
▁froc	-12904
▁gain	-12905
▁gasp	-12906
▁hels	-12907
▁ieft	-12908
▁inev	-12909
▁maig	-12910
▁mend	-12911
▁mers	-12912
▁moto	-12913
▁nail	-12914
▁penn	-12915
▁pian	-12916
▁pieu	-12917
▁plaf	-12918
▁poin	-12919
▁pédé	-12920
▁pére	-12921
▁quej	-12922
▁ross	-12923
▁shoe	-12924
▁stun	-12925
▁tach	-12926
▁tiff	-12927
▁uses	-12928
▁vein	-12929
▁zhao	-12930
▁âmes	-12931
▁étou	-12932
aimait	-12933
assaut	-12934
cteurs	-12935
etteur	-12936
hattan	-12937
mikazu	-12938
overed	-12939
prince	-12940
prises	-12941
racted	-12942
▁aiier	-12943
▁armés	-12944
▁aspir	-12945
▁basic	-12946
▁cargo	-12947
▁chefs	-12948
▁chill	-12949
▁clefs	-12950
▁coord	-12951
▁delay	-12952
▁diane	-12953
▁drown	-12954
▁error	-12955
▁flipp	-12956
▁fools	-12957
▁fêtes	-12958
▁gamme	-12959
▁impul	-12960
▁inner	-12961
▁janus	-12962
▁lamar	-12963
▁lancé	-12964
▁legit	-12965
▁lopez	-12966
▁lords	-12967
▁loyer	-12968
▁mafia	-12969
▁mills	-12970
▁nephe	-12971
▁neveu	-12972
▁paula	-12973
▁penal	-12974
▁priam	-12975
▁prosp	-12976
▁pékin	-12977
▁raide	-12978
▁reins	-12979
▁robin	-12980
▁régul	-12981
▁seins	-12982
▁shore	-12983
▁shown	-12984
▁skirt	-12985
▁soirs	-12986
▁spons	-12987
▁suffe	-12988
▁swann	-12989
▁tours	-12990
▁vivez	-12991
▁zerga	-12992
hopital	-12993
itaires	-12994
quences	-12995
reintes	-12996
utilise	-12997
▁accuse	-12998
▁advert	-12999
▁ailles	-13000
▁amusez	-13001
▁aspect	-13002
▁assemb	-13003
▁assise	-13004
▁berger	-13005
▁civile	-13006
▁claims	-13007
▁closet	-13008
▁comics	-13009
▁condem	-13010
▁contam	-13011
▁coupée	-13012
▁courts	-13013
▁degree	-13014
▁dispon	-13015
▁dégâts	-13016
▁effets	-13017
▁elijah	-13018
▁entrep	-13019
▁espace	-13020
▁façons	-13021
▁finira	-13022
▁fremen	-13023
▁fâchée	-13024
▁grimpe	-13025
▁hallow	-13026
▁hitler	-13027
▁incend	-13028
▁interd	-13029
▁italie	-13030
▁marcel	-13031
▁marvin	-13032
▁messed	-13033
▁morrow	-13034
▁moteur	-13035
▁nausée	-13036
▁nerves	-13037
▁néglig	-13038
▁packed	-13039
▁panama	-13040
▁patrol	-13041
▁plaque	-13042
▁plonge	-13043
▁pressé	-13044
▁rayons	-13045
▁restée	-13046
▁rythme	-13047
▁sector	-13048
▁sienne	-13049
▁signez	-13050
▁squire	-13051
▁sticks	-13052
▁sucker	-13053
▁tattoo	-13054
▁termes	-13055
▁toller	-13056
▁trafic	-13057
▁tricks	-13058
▁vagues	-13059
▁wizard	-13060
▁écrite	-13061
▁éteint	-13062
fortable	-13063
▁analyse	-13064
▁archite	-13065
▁asgards	-13066
▁associé	-13067
▁attache	-13068
▁attrapé	-13069
▁awfully	-13070
▁biocyte	-13071
▁cauchem	-13072
▁chagrin	-13073
▁collier	-13074
▁complot	-13075
▁consent	-13076
▁conspir	-13077
▁deposit	-13078
▁dignity	-13079
▁dignité	-13080
▁discret	-13081
▁disting	-13082
▁earthqu	-13083
▁effects	-13084
▁enfance	-13085
▁enfermé	-13086
▁episode	-13087
▁essence	-13088
▁eternal	-13089
▁gratuit	-13090
▁hoggett	-13091
▁intense	-13092
▁interpr	-13093
▁interro	-13094
▁invitée	-13095
▁méthode	-13096
▁naughty	-13097
▁neville	-13098
▁plongée	-13099
▁poverty	-13100
▁privacy	-13101
▁privile	-13102
▁profile	-13103
▁relever	-13104
▁renvoyé	-13105
▁reprodu	-13106
▁retirer	-13107
▁réservé	-13108
▁sounded	-13109
▁steiner	-13110
▁steward	-13111
▁substit	-13112
▁tiendra	-13113
▁tombent	-13114
▁verdict	-13115
▁voyager	-13116
▁winesap	-13117
embrasser	-13118
explosion	-13119
mikazuchi	-13120
▁accroche	-13121
▁apprends	-13122
▁bellagio	-13123
▁chemical	-13124
▁citizens	-13125
▁compared	-13126
▁concerns	-13127
▁convient	-13128
▁crossing	-13129
▁emporter	-13130
▁essaient	-13131
▁essayait	-13132
▁fantômes	-13133
▁festival	-13134
▁fighters	-13135
▁franchir	-13136
▁garnison	-13137
▁gorgeous	-13138
▁identify	-13139
▁illusion	-13140
▁infected	-13141
▁jennifer	-13142
▁lifetime	-13143
▁louisian	-13144
▁manières	-13145
▁mariachi	-13146
▁mistaken	-13147
▁occupied	-13148
▁paraître	-13149
▁producer	-13150
▁préférez	-13151
▁racontez	-13152
▁sauvages	-13153
▁tortured	-13154
▁troupeau	-13155
▁vampires	-13156
▁visiting	-13157
▁warriors	-13158
▁étranger	-13159
▁approchez	-13160
▁attendait	-13161
▁carefully	-13162
▁commences	-13163
▁commodore	-13164
▁daughters	-13165
▁francisco	-13166
▁intéressé	-13167
▁maintenir	-13168
▁manhattan	-13169
▁ordinaire	-13170
▁pouvaient	-13171
▁premières	-13172
▁reconnaît	-13173
▁recovered	-13174
▁religious	-13175
▁rothstein	-13176
▁sélection	-13177
▁assistance	-13178
▁poursuivre	-13179
▁traitement	-13180
▁transports	-13181
▁arrangement	-13182
▁competition	-13183
▁considering	-13184
▁description	-13185
▁normalement	-13186
▁conséquences	-13187
▁profondément	-13188
▁takemikazuchi	-13189
▁understanding	-13190
▁personnellement	-13191
fg	-13192
awa	-13193
hés	-13194
ikh	-13195
leg	-13196
onc	-13197
ppi	-13198
rum	-13199
uil	-13200
utu	-13201
}..	-13202
▁'"	-13203
▁ox	-13204
acht	-13205
appl	-13206
appr	-13207
auto	-13208
babe	-13209
card	-13210
fait	-13211
foot	-13212
iieb	-13213
ione	-13214
jama	-13215
mens	-13216
oids	-13217
oies	-13218
oile	-13219
olte	-13220
pool	-13221
rade	-13222
rive	-13223
éche	-13224
▁chy	-13225
▁coq	-13226
▁cuc	-13227
▁dej	-13228
▁dug	-13229
▁fio	-13230
▁fré	-13231
▁kar	-13232
▁kou	-13233
▁nyu	-13234
▁raw	-13235
▁rex	-13236
▁sas	-13237
▁sév	-13238
▁tch	-13239
▁toy	-13240
▁usr	-13241
▁web	-13242
▁wip	-13243
abela	-13244
abutu	-13245
accès	-13246
aimez	-13247
anged	-13248
anski	-13249
armed	-13250
bbing	-13251
ceaux	-13252
cible	-13253
effet	-13254
encer	-13255
envir	-13256
eront	-13257
fgott	-13258
illet	-13259
ising	-13260
istre	-13261
ocats	-13262
oisse	-13263
opéra	-13264
phant	-13265
rante	-13266
ridge	-13267
ulent	-13268
ullus	-13269
èques	-13270
écras	-13271
▁appa	-13272
▁arse	-13273
▁atro	-13274
▁beur	-13275
▁chal	-13276
▁coté	-13277
▁crié	-13278
▁cuir	-13279
▁debt	-13280
▁degr	-13281
▁dodd	-13282
▁epip	-13283
▁exig	-13284
▁filé	-13285
▁fisc	-13286
▁fixe	-13287
▁glac	-13288
▁guid	-13289
▁hôte	-13290
▁imit	-13291
▁jazz	-13292
▁lyle	-13293
▁miho	-13294
▁nebu	-13295
▁omar	-13296
▁orte	-13297
▁pigs	-13298
▁piqu	-13299
▁piét	-13300
▁plai	-13301
▁quai	-13302
▁raft	-13303
▁redu	-13304
▁seui	-13305
▁shat	-13306
▁sorb	-13307
▁toss	-13308
▁tuck	-13309
▁wand	-13310
▁wanu	-13311
▁weas	-13312
▁weir	-13313
▁wrap	-13314
apping	-13315
christ	-13316
endous	-13317
entret	-13318
ignons	-13319
imeter	-13320
nezzar	-13321
oiseau	-13322
ombres	-13323
redith	-13324
roches	-13325
verrai	-13326
vertir	-13327
▁acted	-13328
▁alien	-13329
▁alley	-13330
▁arrog	-13331
▁balai	-13332
▁bever	-13333
▁burns	-13334
▁bénéf	-13335
▁cemet	-13336
▁claus	-13337
▁couru	-13338
▁coûté	-13339
▁dimin	-13340
▁douée	-13341
▁epide	-13342
▁essai	-13343
▁farde	-13344
▁fichu	-13345
▁fiona	-13346
▁fière	-13347
▁forty	-13348
▁frang	-13349
▁fuite	-13350
▁fédér	-13351
▁gelée	-13352
▁genov	-13353
▁geral	-13354
▁gimme	-13355
▁hache	-13356
▁hasan	-13357
▁helps	-13358
▁homel	-13359
▁hondo	-13360
▁jacob	-13361
▁maria	-13362
▁mathe	-13363
▁maxim	-13364
▁media	-13365
▁meure	-13366
▁nerds	-13367
▁niobe	-13368
▁orgas	-13369
▁piace	-13370
▁rodéo	-13371
▁résol	-13372
▁safer	-13373
▁skill	-13374
▁slide	-13375
▁soupç	-13376
▁stopp	-13377
▁strat	-13378
▁surge	-13379
▁tabor	-13380
▁takin	-13381
▁tests	-13382
▁thème	-13383
▁verse	-13384
▁vertu	-13385
▁wreck	-13386
▁yault	-13387
▁élève	-13388
enlever	-13389
iendrez	-13390
isabeth	-13391
justice	-13392
panting	-13393
phiroth	-13394
rissage	-13395
étiques	-13396
▁actual	-13397
▁annulé	-13398
▁anubis	-13399
▁avouer	-13400
▁ballet	-13401
▁barcel	-13402
▁benson	-13403
▁blasph	-13404
▁brigid	-13405
▁canons	-13406
▁canots	-13407
▁casier	-13408
▁casual	-13409
▁catast	-13410
▁claque	-13411
▁cochen	-13412
▁crache	-13413
▁dating	-13414
▁deaths	-13415
▁defeat	-13416
▁denzel	-13417
▁diplom	-13418
▁doreen	-13419
▁elimin	-13420
▁elvira	-13421
▁entour	-13422
▁entret	-13423
▁entrés	-13424
▁fausse	-13425
▁ferons	-13426
▁ferris	-13427
▁foudre	-13428
▁gloves	-13429
▁harken	-13430
▁indien	-13431
▁league	-13432
▁lionel	-13433
▁lovers	-13434
▁luther	-13435
▁messie	-13436
▁mortel	-13437
▁muscle	-13438
▁option	-13439
▁orbite	-13440
▁planté	-13441
▁pleuré	-13442
▁polite	-13443
▁pooter	-13444
▁psycho	-13445
▁péchés	-13446
▁quarre	-13447
▁repéré	-13448
▁review	-13449
▁rouler	-13450
▁sakuma	-13451
▁senior	-13452
▁sewers	-13453
▁sittin	-13454
▁smiley	-13455
▁sonora	-13456
▁sortis	-13457
▁superf	-13458
▁tastes	-13459
▁tenait	-13460
▁tuttle	-13461
▁unable	-13462
▁waitin	-13463
▁worker	-13464
▁épousé	-13465
▁éveill	-13466
académie	-13467
▁annuler	-13468
▁anthony	-13469
▁asseoir	-13470
▁assurez	-13471
▁attaché	-13472
▁blocked	-13473
▁brunico	-13474
▁cabrini	-13475
▁cochine	-13476
▁comédie	-13477
▁conclus	-13478
▁contrad	-13479
▁cousine	-13480
▁creuser	-13481
▁damaged	-13482
▁defence	-13483
▁display	-13484
▁déclare	-13485
▁faisiez	-13486
▁fraîche	-13487
▁hurting	-13488
▁inhabit	-13489
▁initial	-13490
▁kimball	-13491
▁limites	-13492
▁magical	-13493
▁mainten	-13494
▁malaise	-13495
▁marteau	-13496
▁nichons	-13497
▁orchest	-13498
▁painful	-13499
▁panties	-13500
▁paralys	-13501
▁passées	-13502
▁plastic	-13503
▁pockets	-13504
▁prisons	-13505
▁prétend	-13506
▁raccoon	-13507
▁refuser	-13508
▁related	-13509
▁rentrée	-13510
▁rentrés	-13511
▁results	-13512
▁retired	-13513
▁sembler	-13514
▁semblez	-13515
▁shellie	-13516
▁shelter	-13517
▁smiling	-13518
▁tequila	-13519
▁testing	-13520
▁tournez	-13521
▁tournoi	-13522
▁traject	-13523
▁travaux	-13524
▁voisins	-13525
▁voleurs	-13526
▁worries	-13527
▁worship	-13528
▁wrapped	-13529
▁émotion	-13530
▁énergie	-13531
▁épaules	-13532
essaierai	-13533
installer	-13534
quisition	-13535
screaming	-13536
▁appeared	-13537
▁argument	-13538
▁benjamin	-13539
▁blanches	-13540
▁bracelet	-13541
▁chanceux	-13542
▁collègue	-13543
▁constant	-13544
▁craindre	-13545
▁creating	-13546
▁descendu	-13547
▁descente	-13548
▁garrison	-13549
▁gavabutu	-13550
▁gottiieb	-13551
▁grenades	-13552
▁helfgott	-13553
▁imaginez	-13554
▁immortal	-13555
▁knocking	-13556
▁lumières	-13557
▁meredith	-13558
▁mirabela	-13559
▁nebuchad	-13560
▁operator	-13561
▁passerai	-13562
▁poubelle	-13563
▁pourront	-13564
▁previous	-13565
▁probleme	-13566
▁quantité	-13567
▁repartir	-13568
▁required	-13569
▁revanche	-13570
▁réserves	-13571
▁solitude	-13572
▁souffert	-13573
▁suffered	-13574
▁surround	-13575
▁tragique	-13576
▁trahison	-13577
▁transmit	-13578
▁ténèbres	-13579
▁émission	-13580
entreprise	-13581
expérience	-13582
▁attacking	-13583
▁bothering	-13584
▁cherchent	-13585
▁connected	-13586
▁continent	-13587
▁criminels	-13588
▁customers	-13589
▁devereaux	-13590
▁financial	-13591
▁furniture	-13592
▁meurtrier	-13593
▁miserable	-13594
▁negotiate	-13595
▁nucléaire	-13596
▁partition	-13597
▁permanent	-13598
▁pitoyable	-13599
▁puissante	-13600
▁rapproche	-13601
▁scorpions	-13602
▁sephiroth	-13603
▁supérieur	-13604
▁survivors	-13605
▁terrorist	-13606
▁étudiants	-13607
▁appearance	-13608
▁chancelier	-13609
▁dangereuse	-13610
▁foundation	-13611
▁physically	-13612
▁ressembles	-13613
▁récompense	-13614
▁répétition	-13615
▁sacrificed	-13616
▁uniquement	-13617
▁approaching	-13618
▁dégueulasse	-13619
▁personality	-13620
▁température	-13621
▁travaillent	-13622
▁unfortunate	-13623
▁particularly	-13624
▁photographer	-13625
▁impressionnant	-13626
▁nebuchadnezzar	-13627
▁renseignements	-13628
bc	-13629
ali	-13630
amé	-13631
arb	-13632
arg	-13633
aws	-13634
bah	-13635
cia	-13636
cir	-13637
cro	-13638
dib	-13639
eut	-13640
fil	-13641
fre	-13642
hér	-13643
joe	-13644
jun	-13645
may	-13646
ols	-13647
oni	-13648
pit	-13649
psy	-13650
xus	-13651
yea	-13652
zio	-13653
▁ky	-13654
▁rh	-13655
alez	-13656
amem	-13657
athy	-13658
auer	-13659
ayez	-13660
comb	-13661
erci	-13662
goun	-13663
hand	-13664
ived	-13665
jans	-13666
lard	-13667
moon	-13668
obil	-13669
ogie	-13670
omir	-13671
oner	-13672
onté	-13673
pend	-13674
phre	-13675
rius	-13676
robe	-13677
some	-13678
ufir	-13679
ulus	-13680
èles	-13681
▁--?	-13682
▁abî	-13683
▁baz	-13684
▁chô	-13685
▁duv	-13686
▁dvd	-13687
▁hés	-13688
▁nag	-13689
▁nix	-13690
▁pât	-13691
▁rug	-13692
▁sod	-13693
▁sum	-13694
▁tox	-13695
▁von	-13696
▁ère	-13697
▁égo	-13698
abbed	-13699
acted	-13700
aling	-13701
cedes	-13702
every	-13703
force	-13704
inois	-13705
irent	-13706
itime	-13707
janus	-13708
kaban	-13709
leurs	-13710
mploy	-13711
objet	-13712
ocean	-13713
ograp	-13714
olent	-13715
onent	-13716
quand	-13717
rable	-13718
rapez	-13719
sniff	-13720
ussit	-13721
écrou	-13722
▁ages	-13723
▁appr	-13724
▁arna	-13725
▁banc	-13726
▁bold	-13727
▁bowl	-13728
▁byak	-13729
▁cald	-13730
▁coqu	-13731
▁diaz	-13732
▁duré	-13733
▁educ	-13734
▁ethn	-13735
▁fiss	-13736
▁flip	-13737
▁flir	-13738
▁folk	-13739
▁gala	-13740
▁hood	-13741
▁ieur	-13742
▁ille	-13743
▁kirk	-13744
▁kore	-13745
▁leve	-13746
▁litt	-13747
▁luxe	-13748
▁neur	-13749
▁niki	-13750
▁noix	-13751
▁oses	-13752
▁pneu	-13753
▁revu	-13754
▁semi	-13755
▁slam	-13756
▁soph	-13757
▁teal	-13758
▁thej	-13759
▁torn	-13760
▁vélo	-13761
▁wanù	-13762
▁whip	-13763
▁writ	-13764
achète	-13765
aisser	-13766
around	-13767
engers	-13768
iences	-13769
instit	-13770
lément	-13771
naires	-13772
oblige	-13773
ortion	-13774
queurs	-13775
éclate	-13776
écrire	-13777
▁abdul	-13778
▁amies	-13779
▁asses	-13780
▁beast	-13781
▁bench	-13782
▁brock	-13783
▁canot	-13784
▁chong	-13785
▁cockt	-13786
▁collé	-13787
▁comed	-13788
▁corne	-13789
▁cyber	-13790
▁davis	-13791
▁doubl	-13792
▁drops	-13793
▁ennuy	-13794
▁fatal	-13795
▁ferry	-13796
▁greer	-13797
▁hardy	-13798
▁humor	-13799
▁hélic	-13800
▁illég	-13801
▁india	-13802
▁indig	-13803
▁indép	-13804
▁invin	-13805
▁irène	-13806
▁jaune	-13807
▁liber	-13808
▁livré	-13809
▁lobby	-13810
▁légal	-13811
▁merdé	-13812
▁motiv	-13813
▁nigel	-13814
▁nuage	-13815
▁outer	-13816
▁paces	-13817
▁patro	-13818
▁piges	-13819
▁prick	-13820
▁pulse	-13821
▁pénis	-13822
▁rodeo	-13823
▁seats	-13824
▁simul	-13825
▁songe	-13826
▁taill	-13827
▁tariq	-13828
▁tiers	-13829
▁towel	-13830
▁toyou	-13831
▁tradu	-13832
▁trent	-13833
▁twins	-13834
▁valid	-13835
▁vides	-13836
▁zones	-13837
▁échec	-13838
amemnon	-13839
enfance	-13840
ensions	-13841
issance	-13842
issante	-13843
quement	-13844
éclater	-13845
▁accent	-13846
▁ambass	-13847
▁bandes	-13848
▁basque	-13849
▁bender	-13850
▁bourge	-13851
▁bouton	-13852
▁carton	-13853
▁cellar	-13854
▁certes	-13855
▁childs	-13856
▁coeurs	-13857
▁connus	-13858
▁dessin	-13859
▁doughn	-13860
▁douter	-13861
▁dublin	-13862
▁duryea	-13863
▁déchir	-13864
▁fabric	-13865
▁farine	-13866
▁fields	-13867
▁franki	-13868
▁gerald	-13869
▁gloria	-13870
▁gratte	-13871
▁grille	-13872
▁harley	-13873
▁impact	-13874
▁indian	-13875
▁katase	-13876
▁kumare	-13877
▁libère	-13878
▁maniac	-13879
▁miroir	-13880
▁motion	-13881
▁nephew	-13882
▁nosfer	-13883
▁phones	-13884
▁phénom	-13885
▁pilots	-13886
▁plates	-13887
▁portez	-13888
▁potato	-13889
▁proved	-13890
▁prover	-13891
▁prêter	-13892
▁pushed	-13893
▁racket	-13894
▁redout	-13895
▁rigole	-13896
▁series	-13897
▁sherek	-13898
▁sirius	-13899
▁sirène	-13900
▁softly	-13901
▁sorrow	-13902
▁sparta	-13903
▁status	-13904
▁supper	-13905
▁tarder	-13906
▁trains	-13907
▁triomp	-13908
▁unlike	-13909
▁valium	-13910
▁whammy	-13911
▁wisdom	-13912
▁église	-13913
abilités	-13914
attendez	-13915
enregist	-13916
émission	-13917
étranger	-13918
▁alberto	-13919
▁apaches	-13920
▁atterri	-13921
▁avancer	-13922
▁blasphe	-13923
▁bottles	-13924
▁brouill	-13925
▁bénisse	-13926
▁choisit	-13927
▁chopper	-13928
▁chrissy	-13929
▁colline	-13930
▁crucial	-13931
▁crétins	-13932
▁degrees	-13933
▁delight	-13934
▁donnera	-13935
▁dépensé	-13936
▁emporte	-13937
▁endless	-13938
▁engaged	-13939
▁entraîn	-13940
▁envoyés	-13941
▁exploit	-13942
▁fardeau	-13943
▁graisse	-13944
▁guitare	-13945
▁impress	-13946
▁joining	-13947
▁langage	-13948
▁limited	-13949
▁mettent	-13950
▁mourant	-13951
▁mérites	-13952
▁occupée	-13953
▁ordures	-13954
▁partici	-13955
▁pension	-13956
▁permets	-13957
▁projets	-13958
▁qualité	-13959
▁realise	-13960
▁reconnu	-13961
▁renfort	-13962
▁restons	-13963
▁ricardo	-13964
▁sachant	-13965
▁shadows	-13966
▁signing	-13967
▁smaller	-13968
▁smashed	-13969
▁stepped	-13970
▁stevens	-13971
▁stretch	-13972
▁suggère	-13973
▁suprême	-13974
▁therapy	-13975
▁thinkin	-13976
▁thirsty	-13977
▁tiffany	-13978
▁trojans	-13979
▁valises	-13980
▁various	-13981
▁volcano	-13982
appellent	-13983
attention	-13984
▁addition	-13985
▁arriving	-13986
▁assigned	-13987
▁bouclier	-13988
▁byakurai	-13989
▁cachette	-13990
▁cervelle	-13991
▁chambres	-13992
▁collabor	-13993
▁couleurs	-13994
▁crawling	-13995
▁critique	-13996
▁customer	-13997
▁devaient	-13998
▁distract	-13999
▁découver	-14000
▁déplacer	-14001
▁désastre	-14002
▁epidemic	-14003
▁epiphany	-14004
▁evacuate	-14005
▁executed	-14006
▁floating	-14007
▁fréquent	-14008
▁gonzesse	-14009
▁généreux	-14010
▁ignorant	-14011
▁informed	-14012
▁intended	-14013
▁laissait	-14014
▁listened	-14015
▁mercedes	-14016
▁michelle	-14017
▁ministry	-14018
▁méchante	-14019
▁obstacle	-14020
▁promises	-14021
▁requires	-14022
▁spearman	-14023
▁syndrome	-14024
▁torturer	-14025
▁unemploy	-14026
▁urgences	-14027
▁valuable	-14028
▁visitors	-14029
▁wondered	-14030
▁étranges	-14031
abandonner	-14032
▁answering	-14033
▁apprécier	-14034
▁australie	-14035
▁camarades	-14036
▁chaussure	-14037
▁cochineal	-14038
▁critiques	-14039
▁desperate	-14040
▁disparais	-14041
▁disparaît	-14042
▁fashioned	-14043
▁katherine	-14044
▁lancement	-14045
▁lassparri	-14046
▁letterman	-14047
▁lightning	-14048
▁massacrer	-14049
▁maîtresse	-14050
▁ouverture	-14051
▁pourboire	-14052
▁recognise	-14053
▁remaining	-14054
▁rosenberg	-14055
▁salvation	-14056
▁sharkbait	-14057
▁tentative	-14058
▁transfert	-14059
▁violation	-14060
information	-14061
▁basketball	-14062
▁catholique	-14063
▁clairement	-14064
▁cochenille	-14065
▁concentrer	-14066
▁concernant	-14067
▁convenient	-14068
▁earthquake	-14069
▁friendship	-14070
▁lesquelles	-14071
▁resistance	-14072
▁réellement	-14073
▁throughout	-14074
▁téléphoner	-14075
▁volontaire	-14076
▁volontiers	-14077
▁authorities	-14078
▁automatique	-14079
▁fascinating	-14080
▁gouvernante	-14081
▁gravitation	-14082
▁inspiration	-14083
▁necessarily	-14084
▁observation	-14085
▁reservation	-14086
▁sincèrement	-14087
▁understands	-14088
▁accomplished	-14089
▁consequences	-14090
▁corporations	-14091
▁intéressante	-14092
▁travailleurs	-14093
▁questionnaire	-14094
?'	-14095
chs	-14096
haw	-14097
hoe	-14098
inq	-14099
iti	-14100
nal	-14101
nei	-14102
oma	-14103
orb	-14104
pie	-14105
sen	-14106
tom	-14107
uga	-14108
var	-14109
wig	-14110
zes	-14111
▁aý	-14112
achu	-14113
adaj	-14114
aflo	-14115
ando	-14116
asso	-14117
beat	-14118
deur	-14119
door	-14120
hero	-14121
horn	-14122
iies	-14123
impl	-14124
irst	-14125
lure	-14126
oche	-14127
oilà	-14128
oted	-14129
othe	-14130
oure	-14131
pary	-14132
phin	-14133
rien	-14134
rors	-14135
then	-14136
tton	-14137
ueur	-14138
urée	-14139
wold	-14140
writ	-14141
▁agi	-14142
▁aie	-14143
▁bis	-14144
▁bog	-14145
▁ced	-14146
▁cod	-14147
▁dah	-14148
▁dow	-14149
▁fog	-14150
▁hue	-14151
▁lub	-14152
▁pik	-14153
▁shy	-14154
▁tag	-14155
▁tob	-14156
▁tyr	-14157
▁uld	-14158
▁ups	-14159
▁vég	-14160
▁vœu	-14161
along	-14162
améli	-14163
arter	-14164
aucun	-14165
aughn	-14166
avier	-14167
balls	-14168
ckley	-14169
envoy	-14170
ially	-14171
iatus	-14172
illés	-14173
intry	-14174
iront	-14175
itage	-14176
laire	-14177
nette	-14178
orita	-14179
owing	-14180
oyama	-14181
phine	-14182
raill	-14183
riger	-14184
tyard	-14185
uated	-14186
unité	-14187
érité	-14188
étant	-14189
étiez	-14190
▁adso	-14191
▁agit	-14192
▁athe	-14193
▁beam	-14194
▁bein	-14195
▁bend	-14196
▁chir	-14197
▁chut	-14198
▁chuy	-14199
▁deke	-14200
▁emma	-14201
▁flan	-14202
▁foxy	-14203
▁goal	-14204
▁grin	-14205
▁hump	-14206
▁jeez	-14207
▁kaio	-14208
▁lola	-14209
▁meas	-14210
▁mole	-14211
▁naze	-14212
▁owns	-14213
▁pale	-14214
▁parv	-14215
▁peas	-14216
▁pert	-14217
▁quon	-14218
▁rect	-14219
▁sack	-14220
▁sedu	-14221
▁shan	-14222
▁sits	-14223
▁skip	-14224
▁spec	-14225
▁spud	-14226
▁subl	-14227
▁tabl	-14228
▁tapé	-14229
▁tete	-14230
▁thie	-14231
▁wore	-14232
▁œufs	-14233
accept	-14234
aiment	-14235
atrell	-14236
barian	-14237
conque	-14238
enlève	-14239
estion	-14240
icient	-14241
ilibre	-14242
onnées	-14243
quante	-14244
rances	-14245
uelles	-14246
économ	-14247
▁andre	-14248
▁avanc	-14249
▁baign	-14250
▁baiss	-14251
▁beard	-14252
▁biens	-14253
▁bloom	-14254
▁boite	-14255
▁bombs	-14256
▁bonté	-14257
▁comté	-14258
▁convo	-14259
▁conçu	-14260
▁corbe	-14261
▁crumb	-14262
▁cryst	-14263
▁cured	-14264
▁deals	-14265
▁drill	-14266
▁décid	-14267
▁dépos	-14268
▁facil	-14269
▁flatt	-14270
▁foire	-14271
▁frigo	-14272
▁gates	-14273
▁goeth	-14274
▁guido	-14275
▁holds	-14276
▁horny	-14277
▁items	-14278
▁jacky	-14279
▁kadaj	-14280
▁kruse	-14281
▁laund	-14282
▁linus	-14283
▁mette	-14284
▁milan	-14285
▁mises	-14286
▁nomme	-14287
▁nègre	-14288
▁oeufs	-14289
▁oskar	-14290
▁penet	-14291
▁penis	-14292
▁poète	-14293
▁rabbi	-14294
▁regag	-14295
▁remor	-14296
▁ricky	-14297
▁ronde	-14298
▁samel	-14299
▁sanct	-14300
▁saori	-14301
▁sarum	-14302
▁serre	-14303
▁skull	-14304
▁sorts	-14305
▁spray	-14306
▁stair	-14307
▁stamp	-14308
▁stylo	-14309
▁thats	-14310
▁tremb	-14311
▁tuent	-14312
▁unies	-14313
▁urich	-14314
▁voyou	-14315
▁walsh	-14316
▁withd	-14317
▁égale	-14318
"......	-14319
aflores	-14320
empêche	-14321
enfoiré	-14322
horvich	-14323
inement	-14324
inviter	-14325
issippi	-14326
manship	-14327
respons	-14328
ussitôt	-14329
épreuve	-14330
▁acteur	-14331
▁adulte	-14332
▁aintry	-14333
▁alfred	-14334
▁amiral	-14335
▁aperçu	-14336
▁attire	-14337
▁balade	-14338
▁beaver	-14339
▁bloqué	-14340
▁botter	-14341
▁boucle	-14342
▁bucket	-14343
▁bétail	-14344
▁carpet	-14345
▁checks	-14346
▁circle	-14347
▁compat	-14348
▁connaî	-14349
▁consac	-14350
▁crisis	-14351
▁crocod	-14352
▁cyphre	-14353
▁dement	-14354
▁disput	-14355
▁dissim	-14356
▁drives	-14357
▁dwight	-14358
▁dégonf	-14359
▁fights	-14360
▁foutus	-14361
▁ghosts	-14362
▁greffe	-14363
▁groups	-14364
▁heroin	-14365
▁intrud	-14366
▁krunch	-14367
▁kumaré	-14368
▁leuban	-14369
▁lntern	-14370
▁lsrael	-14371
▁lytton	-14372
▁lâches	-14373
▁machin	-14374
▁mccabe	-14375
▁menacé	-14376
▁mersin	-14377
▁micros	-14378
▁mourra	-14379
▁narrow	-14380
▁pancho	-14381
▁parlor	-14382
▁pippin	-14383
▁plains	-14384
▁poches	-14385
▁porche	-14386
▁postes	-14387
▁powder	-14388
▁praise	-14389
▁prière	-14390
▁promen	-14391
▁prouvé	-14392
▁radeau	-14393
▁rating	-14394
▁refait	-14395
▁retiré	-14396
▁ripped	-14397
▁rumors	-14398
▁russel	-14399
▁sachez	-14400
▁savage	-14401
▁sergei	-14402
▁shinra	-14403
▁skills	-14404
▁skinny	-14405
▁steven	-14406
▁stinks	-14407
▁struck	-14408
▁subway	-14409
▁sucked	-14410
▁swords	-14411
▁séduis	-14412
▁thufir	-14413
▁titres	-14414
▁tonnes	-14415
▁tueurs	-14416
▁ultime	-14417
▁valait	-14418
▁vaughn	-14419
▁videot	-14420
▁voudra	-14421
▁willie	-14422
▁worlds	-14423
▁worthy	-14424
imaginer	-14425
▁adorent	-14426
▁affairs	-14427
▁approve	-14428
▁appétit	-14429
▁charity	-14430
▁château	-14431
▁claudia	-14432
▁cleared	-14433
▁cocaine	-14434
▁concept	-14435
▁console	-14436
▁courtes	-14437
▁crewman	-14438
▁demeure	-14439
▁dimitri	-14440
▁dingues	-14441
▁dorothy	-14442
▁dépasse	-14443
▁envoyée	-14444
▁explosé	-14445
▁fighter	-14446
▁fishing	-14447
▁floride	-14448
▁freddie	-14449
▁georgie	-14450
▁guerres	-14451
▁guessed	-14452
▁homosex	-14453
▁inventé	-14454
▁jeopard	-14455
▁jewelry	-14456
▁joueurs	-14457
▁jumping	-14458
▁killers	-14459
▁laspary	-14460
▁latrell	-14461
▁ltalian	-14462
▁martini	-14463
▁massage	-14464
▁merdier	-14465
▁mettait	-14466
▁mourras	-14467
▁obligée	-14468
▁obtenir	-14469
▁oreille	-14470
▁parlant	-14471
▁parlera	-14472
▁passons	-14473
▁pikachu	-14474
▁planets	-14475
▁planque	-14476
▁poulets	-14477
▁priests	-14478
▁prophét	-14479
▁prêtres	-14480
▁rejoins	-14481
▁removed	-14482
▁retenir	-14483
▁riddick	-14484
▁rigoler	-14485
▁robbing	-14486
▁robbins	-14487
▁réussit	-14488
▁selfish	-14489
▁session	-14490
▁shaking	-14491
▁stratég	-14492
▁trusted	-14493
▁tuerait	-14494
▁vedette	-14495
▁écraser	-14496
assurance	-14497
▁aimeriez	-14498
▁aussitôt	-14499
▁baptiste	-14500
▁batiatus	-14501
▁beautifu	-14502
▁captured	-14503
▁catching	-14504
▁conseils	-14505
▁critical	-14506
▁divorced	-14507
▁douzaine	-14508
▁embrasse	-14509
▁enseigne	-14510
▁entendus	-14511
▁extermin	-14512
▁franklin	-14513
▁griswold	-14514
▁grouille	-14515
▁holidays	-14516
▁hopeless	-14517
▁independ	-14518
▁intérêts	-14519
▁macready	-14520
▁musicien	-14521
▁pressing	-14522
▁remontez	-14523
▁reported	-14524
▁rethrick	-14525
▁sexuelle	-14526
▁shitting	-14527
▁suicider	-14528
▁tiennent	-14529
▁tonnerre	-14530
▁toulouse	-14531
▁transfor	-14532
▁underest	-14533
▁vaudrait	-14534
▁voudriez	-14535
accompagne	-14536
infirmière	-14537
▁arriverai	-14538
▁attracted	-14539
▁conscient	-14540
▁courtyard	-14541
▁criminals	-14542
▁delicious	-14543
▁delighted	-14544
▁developed	-14545
▁déménager	-14546
▁elisabeth	-14547
▁gratitude	-14548
▁guibarian	-14549
▁halloween	-14550
▁honorable	-14551
▁intercept	-14552
▁krusemark	-14553
▁meanwhile	-14554
▁mitraille	-14555
▁nosferatu	-14556
▁offensive	-14557
▁plastique	-14558
▁procedure	-14559
▁recommand	-14560
▁returning	-14561
▁spaceship	-14562
▁spéciales	-14563
▁substance	-14564
▁traveling	-14565
▁underwear	-14566
▁adversaire	-14567
▁angleterre	-14568
▁background	-14569
▁commençait	-14570
▁developing	-14571
▁deviennent	-14572
▁excellency	-14573
▁importants	-14574
▁laisseront	-14575
▁miraflores	-14576
▁misunderst	-14577
▁nekhorvich	-14578
▁philosophy	-14579
▁quelconque	-14580
▁reviennent	-14581
▁successful	-14582
▁suggestion	-14583
▁terroriste	-14584
▁terrorists	-14585
▁tournament	-14586
▁travailles	-14587
▁tremendous	-14588
▁britannique	-14589
▁championnat	-14590
▁commissaire	-14591
▁célibataire	-14592
▁perspective	-14593
▁philosophie	-14594
▁photographe	-14595
▁possibilité	-14596
▁technically	-14597
▁temperature	-14598
▁transferred	-14599
▁transmettre	-14600
▁travaillais	-14601
▁autorisation	-14602
▁documentaire	-14603
▁motherfuckers	-14604
▁extraordinaire	-14605
▁responsabilités	-14606
>[	-14607
gh	-14608
mr	-14609
zi	-14610
ahu	-14611
aur	-14612
cue	-14613
dor	-14614
hyp	-14615
izz	-14616
kel	-14617
oph	-14618
oza	-14619
pap	-14620
rob	-14621
sno	-14622
umé	-14623
▁",	-14624
▁bé	-14625
▁wy	-14626
abli	-14627
ados	-14628
bour	-14629
cons	-14630
extr	-14631
fall	-14632
fare	-14633
gueu	-14634
hall	-14635
hers	-14636
lace	-14637
lons	-14638
made	-14639
olai	-14640
oped	-14641
opot	-14642
oric	-14643
ossa	-14644
oule	-14645
pity	-14646
rira	-14647
rous	-14648
rust	-14649
uent	-14650
wind	-14651
▁aci	-14652
▁ade	-14653
▁aqu	-14654
▁arc	-14655
▁bio	-14656
▁cue	-14657
▁dak	-14658
▁dew	-14659
▁etc	-14660
▁gai	-14661
▁gau	-14662
▁hed	-14663
▁hôt	-14664
▁ink	-14665
▁jos	-14666
▁mak	-14667
▁nah	-14668
▁ofa	-14669
▁scr	-14670
▁vow	-14671
▁yod	-14672
▁zut	-14673
aging	-14674
agorn	-14675
appré	-14676
atifs	-14677
avage	-14678
check	-14679
ennui	-14680
ensen	-14681
innoc	-14682
intim	-14683
isten	-14684
iyama	-14685
lbaum	-14686
oncle	-14687
otter	-14688
quées	-14689
rirai	-14690
ulant	-14691
èches	-14692
édent	-14693
œuvre	-14694
▁adel	-14695
▁ammo	-14696
▁anal	-14697
▁apoc	-14698
▁bagu	-14699
▁baie	-14700
▁barr	-14701
▁bent	-14702
▁boll	-14703
▁bunk	-14704
▁caii	-14705
▁chry	-14706
▁clav	-14707
▁clef	-14708
▁clip	-14709
▁coal	-14710
▁coco	-14711
▁dala	-14712
▁dion	-14713
▁dive	-14714
▁dook	-14715
▁duds	-14716
▁echo	-14717
▁esqu	-14718
▁fook	-14719
▁fulf	-14720
▁gast	-14721
▁halt	-14722
▁hant	-14723
▁hust	-14724
▁héro	-14725
▁irré	-14726
▁kent	-14727
▁lana	-14728
▁lime	-14729
▁lugg	-14730
▁moll	-14731
▁nazi	-14732
▁nell	-14733
▁nerd	-14734
▁nong	-14735
▁nope	-14736
▁nost	-14737
▁noté	-14738
▁papy	-14739
▁paré	-14740
▁pimp	-14741
▁pork	-14742
▁rall	-14743
▁reai	-14744
▁rebu	-14745
▁rois	-14746
▁rubb	-14747
▁shou	-14748
▁siff	-14749
▁sofa	-14750
▁sève	-14751
▁taco	-14752
▁thai	-14753
▁tirs	-14754
▁todd	-14755
▁tops	-14756
▁toug	-14757
▁whoo	-14758
▁yank	-14759
▁ýove	-14760
agence	-14761
amiral	-14762
anteur	-14763
bishop	-14764
ceeded	-14765
grunts	-14766
habite	-14767
humeur	-14768
humour	-14769
ispens	-14770
master	-14771
missed	-14772
oracle	-14773
otique	-14774
renant	-14775
éciles	-14776
épouse	-14777
étonne	-14778
▁agnes	-14779
▁aient	-14780
▁amant	-14781
▁amber	-14782
▁arena	-14783
▁award	-14784
▁basis	-14785
▁beign	-14786
▁berto	-14787
▁brist	-14788
▁burst	-14789
▁carre	-14790
▁cessé	-14791
▁coral	-14792
▁croup	-14793
▁deton	-14794
▁dette	-14795
▁dinos	-14796
▁diras	-14797
▁dread	-14798
▁ducon	-14799
▁dépar	-14800
▁enfui	-14801
▁expos	-14802
▁faint	-14803
▁fears	-14804
▁felic	-14805
▁fiers	-14806
▁fossa	-14807
▁fouet	-14808
▁fract	-14809
▁fuchs	-14810
▁grain	-14811
▁heels	-14812
▁hoped	-14813
▁inclu	-14814
▁incul	-14815
▁indul	-14816
▁inond	-14817
▁lampe	-14818
▁linas	-14819
▁loses	-14820
▁lungs	-14821
▁maire	-14822
▁mords	-14823
▁moron	-14824
▁negro	-14825
▁ondes	-14826
▁phoen	-14827
▁piqué	-14828
▁pitch	-14829
▁retre	-14830
▁rompu	-14831
▁ropes	-14832
▁rouss	-14833
▁ruiné	-14834
▁réfug	-14835
▁répar	-14836
▁scale	-14837
▁scram	-14838
▁sixth	-14839
▁spite	-14840
▁steph	-14841
▁swore	-14842
▁tempt	-14843
▁therm	-14844
▁trott	-14845
▁valet	-14846
▁wolfe	-14847
aissent	-14848
atrième	-14849
comment	-14850
enaires	-14851
issions	-14852
olation	-14853
ostigma	-14854
ressing	-14855
▁abroad	-14856
▁actors	-14857
▁alcool	-14858
▁aliens	-14859
▁aoyama	-14860
▁bachel	-14861
▁battue	-14862
▁brille	-14863
▁cercle	-14864
▁chauve	-14865
▁chiric	-14866
▁colour	-14867
▁combin	-14868
▁concur	-14869
▁cuisin	-14870
▁deeply	-14871
▁degrés	-14872
▁detect	-14873
▁devras	-14874
▁devrez	-14875
▁diriez	-14876
▁doutes	-14877
▁driven	-14878
▁désobé	-14879
▁emport	-14880
▁execut	-14881
▁fierté	-14882
▁finals	-14883
▁fuiler	-14884
▁hobbit	-14885
▁honoré	-14886
▁insuff	-14887
▁lapins	-14888
▁lifest	-14889
▁légend	-14890
▁magist	-14891
▁marins	-14892
▁mooney	-14893
▁mordre	-14894
▁mothra	-14895
▁otages	-14896
▁parano	-14897
▁pepper	-14898
▁piquer	-14899
▁pompes	-14900
▁poster	-14901
▁prosec	-14902
▁pyjama	-14903
▁remède	-14904
▁routes	-14905
[...]
